
	0
<s>	0
</s>	0
<pad>	0
<unk>	0
'	0
▁the	-3.23848
,	-3.28178
.	-3.34158
▁to	-3.86452
▁of	-3.91485
s	-3.94993
▁and	-3.99371
▁a	-4.04709
▁in	-4.29244
▁	-4.33034
▁that	-4.69426
’	-4.79674
▁is	-4.82192
-	-4.85904
▁for	-4.96836
▁on	-5.1415
▁it	-5.20371
▁with	-5.26767
▁was	-5.34466
▁The	-5.35766
▁I	-5.37159
▁as	-5.48439
▁be	-5.50361
t	-5.59749
▁are	-5.59925
:	-5.6278
▁“	-5.63779
▁have	-5.67447
▁you	-5.68186
▁at	-5.70421
▁by	-5.70468
▁from	-5.72661
▁(	-5.76257
▁this	-5.78867
▁he	-5.82008
▁not	-5.84182
▁""	-5.85304
▁an	-5.89688
▁has	-5.93944
▁his	-5.95756
▁or	-5.99582
)	-6.03609
▁they	-6.05619
▁said	-6.07673
▁but	-6.09715
▁we	-6.1064
▁will	-6.11244
▁their	-6.19553
▁can	-6.20793
▁more	-6.25227
▁who	-6.28141
▁about	-6.31317
▁one	-6.32463
▁all	-6.3699
▁were	-6.37283
▁had	-6.38726
▁which	-6.39592
▁would	-6.4389
▁been	-6.44276
▁out	-6.45102
▁up	-6.49698
▁It	-6.58888
?	-6.59371
▁In	-6.61469
▁also	-6.63242
▁like	-6.64513
▁so	-6.65807
▁people	-6.66621
▁when	-6.67835
▁what	-6.67848
▁than	-6.70614
▁time	-6.70949
▁there	-6.71085
ing	-6.72459
▁your	-6.72504
”	-6.72808
▁other	-6.74969
▁if	-6.76161
re	-6.76909
▁A	-6.7763
▁into	-6.77644
d	-6.78433
▁just	-6.79356
▁her	-6.7938
▁do	-6.79389
▁its	-6.79955
▁some	-6.82019
.”	-6.83916
▁them	-6.85183
/	-6.85744
▁our	-6.8645
""	-6.87723
m	-6.89559
▁my	-6.89709
▁no	-6.90224
▁over	-6.90271
▁new	-6.92034
▁first	-6.92669
	-6.93888
▁He	-6.94992
ed	-6.95686
,”	-6.958
▁"	-6.96568
▁only	-6.97407
▁two	-6.98554
▁after	-6.99089
▁But	-6.99906
▁could	-7.01528
▁she	-7.0273
;	-7.02992
▁get	-7.03681
▁–	-7.04553
▁This	-7.04912
▁—	-7.09866
▁how	-7.10952
▁him	-7.11366
I	-7.11488
▁most	-7.13126
.""	-7.13757
▁because	-7.14067
▁me	-7.14576
▁any	-7.15398
▁now	-7.15555
▁years	-7.15981
S	-7.19586
▁year	-7.20602
▁even	-7.207
▁make	-7.20749
▁these	-7.22636
a	-7.23584
▁way	-7.25609
,""	-7.25677
▁being	-7.26362
▁We	-7.27617
▁back	-7.28729
▁And	-7.28912
▁many	-7.29202
▁where	-7.2922
▁then	-7.32096
▁those	-7.33702
▁very	-7.34953
▁much	-7.35127
▁-	-7.35903
▁last	-7.36472
ve	-7.37713
▁well	-7.38344
▁don	-7.39264
▁know	-7.39874
▁see	-7.39984
▁work	-7.40862
▁before	-7.41549
er	-7.43605
▁[	-7.43802
e	-7.43997
!	-7.44089
▁think	-7.44503
▁should	-7.44589
▁made	-7.4553
▁use	-7.4633
▁through	-7.46442
▁such	-7.46815
▁may	-7.47363
▁going	-7.47701
ly	-7.49256
▁against	-7.50905
The	-7.51556
▁us	-7.5197
▁game	-7.52869
▁still	-7.53211
▁while	-7.53583
▁world	-7.53993
▁down	-7.54057
▁If	-7.543
▁want	-7.54905
."	-7.54986
y	-7.55627
▁did	-7.55933
▁says	-7.56139
▁good	-7.56438
▁right	-7.5648
▁take	-7.57684
▁same	-7.58686
▁government	-7.59636
▁U	-7.5964
▁between	-7.60119
▁go	-7.61214
ll	-7.61696
▁off	-7.61713
▁They	-7.63079
▁say	-7.63364
▁need	-7.63501
—	-7.63583
▁around	-7.64624
▁three	-7.64923
]	-7.64969
▁You	-7.65205
▁Trump	-7.65313
▁here	-7.67287
▁used	-7.67793
▁1	-7.67894
▁really	-7.68236
▁own	-7.68789
▁New	-7.69552
▁That	-7.69924
▁state	-7.70638
▁team	-7.70971
▁part	-7.70993
).	-7.71448
▁long	-7.72905
in	-7.73207
▁both	-7.73931
▁As	-7.74121
▁2	-7.74488
▁day	-7.74508
▁during	-7.76529
▁There	-7.77797
▁told	-7.77822
▁So	-7.78728
▁since	-7.79689
▁under	-7.80869
th	-7.81228
▁For	-7.82521
),	-7.8277
▁too	-7.85159
_	-7.85728
▁another	-7.85953
▁‘	-7.8629
▁something	-7.86683
▁life	-7.86859
▁end	-7.8707
A	-7.88097
▁public	-7.88471
n	-7.88907
▁few	-7.89406
▁found	-7.89774
▁every	-7.90375
▁things	-7.90438
▁might	-7.91166
▁each	-7.91612
▁come	-7.91776
▁next	-7.9183
▁never	-7.92221
▁system	-7.92636
▁high	-7.92985
▁lot	-7.93152
▁3	-7.93954
▁does	-7.94155
i	-7.94753
▁different	-7.95291
▁best	-7.95374
▁help	-7.95392
▁million	-7.97693
▁including	-7.98002
▁number	-7.98126
▁home	-7.98851
▁without	-7.99541
▁set	-7.99644
▁10	-8.01161
▁support	-8.01196
▁look	-8.01238
We	-8.01554
▁place	-8.02159
▁better	-8.02213
r	-8.02401
▁country	-8.02667
▁case	-8.03028
▁week	-8.03426
▁called	-8.03622
▁season	-8.03839
▁show	-8.03935
▁point	-8.04359
▁little	-8.04456
▁When	-8.04689
▁find	-8.04788
▁got	-8.0491
o	-8.05072
com	-8.05605
▁group	-8.06386
▁man	-8.06787
▁play	-8.06807
▁American	-8.06817
▁great	-8.07001
▁police	-8.07576
▁didn	-8.07714
▁percent	-8.08423
▁put	-8.08926
▁using	-8.09627
▁second	-8.10002
▁data	-8.10945
▁left	-8.1121
the	-8.11346
▁change	-8.11751
▁power	-8.11819
▁What	-8.12575
▁women	-8.12962
▁far	-8.13431
▁company	-8.13586
▁United	-8.14735
▁She	-8.15415
▁On	-8.15433
C	-8.1573
It	-8.16113
▁already	-8.16288
▁money	-8.16987
▁thing	-8.17305
▁top	-8.1768
▁why	-8.17849
▁S	-8.18067
▁later	-8.18307
▁always	-8.18561
▁4	-8.1898
▁information	-8.18997
▁less	-8.19309
▁law	-8.20145
▁again	-8.20156
▁four	-8.20182
▁To	-8.20392
▁big	-8.20471
and	-8.21158
or	-8.21271
▁able	-8.21345
▁city	-8.21979
▁fact	-8.22742
es	-8.22751
▁away	-8.22873
▁per	-8.23734
▁doesn	-8.23837
▁US	-8.23997
D	-8.24084
▁One	-8.24412
▁--	-8.24429
▁least	-8.2499
▁making	-8.25287
▁must	-8.25791
▁though	-8.25861
▁5	-8.26239
▁story	-8.26414
▁family	-8.26501
to	-8.26666
▁Mr	-8.26775
▁enough	-8.26904
▁came	-8.27132
▁until	-8.2827
▁No	-8.28761
▁days	-8.28975
▁working	-8.29024
▁political	-8.2914
2	-8.29666
▁important	-8.29974
▁become	-8.30146
"	-8.30233
▁past	-8.3096
▁took	-8.31104
▁free	-8.31781
▁actually	-8.32002
▁real	-8.32191
▁won	-8.32206
▁report	-8.3258
▁start	-8.32751
▁run	-8.32835
▁give	-8.33241
▁often	-8.33388
year	-8.33547
▁At	-8.33944
▁ever	-8.34121
▁full	-8.35158
▁keep	-8.35573
▁according	-8.36012
▁former	-8.36324
▁name	-8.36388
al	-8.36804
▁President	-8.36853
▁small	-8.36974
▁Obama	-8.37326
▁order	-8.3751
▁media	-8.38143
▁early	-8.38468
▁seen	-8.38621
▁having	-8.38637
▁doing	-8.38783
▁today	-8.38875
▁several	-8.39017
▁campaign	-8.39115
▁men	-8.39629
▁games	-8.39649
▁players	-8.40219
▁whether	-8.40347
▁five	-8.40727
▁hard	-8.40821
▁went	-8.41017
▁example	-8.41019
▁children	-8.41461
▁likely	-8.41665
▁school	-8.42008
▁open	-8.42156
▁feel	-8.42729
▁C	-8.43097
▁York	-8.43153
▁After	-8.43383
man	-8.43528
▁course	-8.43638
▁done	-8.43658
▁business	-8.43773
▁future	-8.43925
▁water	-8.44456
▁line	-8.44513
▁States	-8.44582
▁B	-8.44583
on	-8.44792
▁once	-8.44915
▁process	-8.45375
▁de	-8.45515
▁months	-8.45948
▁video	-8.45975
▁possible	-8.46047
▁local	-8.46142
▁State	-8.4615
▁within	-8.46494
▁community	-8.46548
▁person	-8.46643
▁times	-8.4689
ers	-8.46899
g	-8.46953
▁president	-8.46993
▁kind	-8.47196
▁head	-8.47253
▁20	-8.47344
▁All	-8.47386
▁across	-8.47492
▁means	-8.4752
▁known	-8.4761
▁side	-8.47681
▁D	-8.47694
▁However	-8.48112
▁yet	-8.48419
▁University	-8.48627
▁health	-8.48639
▁believe	-8.48798
▁asked	-8.48815
▁sure	-8.49164
▁social	-8.49257
▁=	-8.49341
▁thought	-8.49607
▁given	-8.49692
▁large	-8.4982
▁problem	-8.50046
▁House	-8.50162
▁]	-8.50619
▁let	-8.50698
▁getting	-8.50813
▁members	-8.5126
▁human	-8.51277
(	-8.51408
▁While	-8.51878
▁level	-8.52198
▁edit	-8.52249
▁night	-8.52568
▁issue	-8.52775
▁re	-8.52879
▁control	-8.52933
▁among	-8.5307
▁America	-8.53393
x	-8.53727
▁available	-8.53974
▁news	-8.54149
▁&	-8.54271
▁old	-8.54352
▁6	-8.54493
▁call	-8.54507
▁idea	-8.54938
▁started	-8.55177
▁series	-8.55223
…	-8.55352
▁With	-8.55599
c	-8.56175
▁month	-8.56197
▁history	-8.56573
▁based	-8.56756
▁deal	-8.56798
▁recent	-8.56882
▁ago	-8.56993
▁move	-8.57369
▁party	-8.57443
▁following	-8.57444
▁T	-8.57496
▁almost	-8.57598
▁experience	-8.57754
▁trying	-8.5776
▁love	-8.57976
▁together	-8.58432
▁book	-8.58492
old	-8.58511
▁makes	-8.58631
▁market	-8.58858
▁major	-8.58885
▁post	-8.58953
k	-8.59017
▁war	-8.59145
1	-8.59233
▁added	-8.5967
▁along	-8.59951
▁O	-8.6021
▁job	-8.60348
▁John	-8.60353
▁isn	-8.60491
▁comes	-8.6076
▁area	-8.61347
▁looking	-8.61494
▁E	-8.61625
▁anything	-8.61695
▁clear	-8.61721
▁question	-8.618
▁saying	-8.61926
▁single	-8.6203
▁non	-8.621
▁live	-8.62184
▁face	-8.62793
▁others	-8.62845
▁pay	-8.62891
▁am	-8.62911
▁taken	-8.63612
▁behind	-8.63629
▁Clinton	-8.6407
▁young	-8.6431
▁half	-8.64412
an	-8.64849
▁current	-8.64865
▁project	-8.64881
▁security	-8.65277
▁rather	-8.65316
▁military	-8.6545
▁try	-8.65725
▁care	-8.65943
▁bit	-8.66243
▁7	-8.66299
▁someone	-8.66467
b	-8.66867
▁player	-8.66978
3	-8.6702
▁national	-8.67043
▁8	-8.67249
▁study	-8.67257
▁hand	-8.67631
▁program	-8.67638
▁policy	-8.6767
▁National	-8.67688
▁wanted	-8.67743
▁Now	-8.67808
▁film	-8.67975
en	-8.68034
▁list	-8.68387
▁taking	-8.68717
▁car	-8.69409
▁12	-8.69471
▁court	-8.69738
▁These	-8.69914
▁plan	-8.70035
▁win	-8.70137
▁World	-8.70327
▁May	-8.70329
▁City	-8.70396
▁coming	-8.70409
▁close	-8.70483
▁service	-8.70544
▁reported	-8.70996
▁read	-8.71019
▁decision	-8.71075
T	-8.71364
▁nothing	-8.71508
▁probably	-8.71907
▁tax	-8.72182
▁however	-8.72288
▁create	-8.72386
▁six	-8.72591
▁death	-8.7278
▁North	-8.72852
▁His	-8.72861
▁body	-8.72932
▁F	-8.73022
▁Washington	-8.73052
▁result	-8.73054
▁low	-8.73322
▁research	-8.73334
▁wrote	-8.73391
M	-8.73786
▁either	-8.74001
R	-8.74576
▁due	-8.74773
▁third	-8.74929
▁statement	-8.7505
B	-8.75208
▁reason	-8.75257
▁companies	-8.7543
▁released	-8.75456
▁federal	-8.75519
up	-8.75567
▁China	-8.7587
▁form	-8.7596
▁tell	-8.7611
▁15	-8.76125
▁further	-8.76141
▁points	-8.76206
▁food	-8.76243
▁space	-8.76256
▁role	-8.7635
▁un	-8.76369
▁everything	-8.76435
▁whole	-8.76513
▁short	-8.76557
▁matter	-8.76654
▁provide	-8.76675
▁issues	-8.7685
▁M	-8.76893
▁G	-8.7692
▁black	-8.77013
▁P	-8.77164
able	-8.77388
▁office	-8.77491
▁R	-8.77563
▁began	-8.77674
▁similar	-8.78151
▁continue	-8.7822
▁seems	-8.78317
▁p	-8.78566
▁attack	-8.78639
▁lead	-8.78693
▁rights	-8.78997
▁students	-8.79041
▁outside	-8.79115
▁became	-8.79194
▁action	-8.7924
▁officials	-8.79375
▁Some	-8.7948
l	-8.79648
p	-8.79804
▁development	-8.79855
▁himself	-8.799
▁countries	-8.80084
▁mean	-8.8018
▁above	-8.8028
▁general	-8.80435
▁hours	-8.80574
▁K	-8.80585
▁itself	-8.80673
▁version	-8.80752
4	-8.80833
▁An	-8.80875
▁hit	-8.81109
▁evidence	-8.81123
▁building	-8.81154
▁themselves	-8.81286
▁bad	-8.81416
▁South	-8.81508
▁release	-8.81583
▁Twitter	-8.8166
▁return	-8.81661
▁cost	-8.81666
▁front	-8.81669
▁How	-8.81939
▁By	-8.81995
▁include	-8.82152
▁turn	-8.82388
▁true	-8.82395
▁simply	-8.82691
://	-8.82954
▁white	-8.82958
▁running	-8.831
▁wasn	-8.83107
▁access	-8.83219
▁record	-8.83226
▁sense	-8.83788
K	-8.8388
▁states	-8.83971
▁needed	-8.84331
▁energy	-8.84417
▁30	-8.84457
▁everyone	-8.84508
▁woman	-8.84588
▁2016	-8.84598
▁saw	-8.8462
­	-8.84989
▁below	-8.85098
▁position	-8.85209
▁election	-8.85313
P	-8.85315
▁near	-8.85337
▁final	-8.85487
▁key	-8.85516
▁Facebook	-8.85835
▁industry	-8.85886
h	-8.85992
▁stop	-8.8603
f	-8.86298
▁pretty	-8.864
▁talk	-8.86429
▁main	-8.86569
▁event	-8.86577
▁light	-8.86769
▁late	-8.86778
▁played	-8.86838
▁self	-8.86871
▁class	-8.86885
▁site	-8.86898
▁quite	-8.87145
▁groups	-8.8744
▁vote	-8.8759
▁White	-8.87714
▁11	-8.8772
▁9	-8.87736
▁value	-8.87874
▁shows	-8.87894
▁playing	-8.87982
▁My	-8.8827
▁Google	-8.88276
▁especially	-8.88377
▁recently	-8.88524
▁J	-8.88836
▁instead	-8.88861
▁lost	-8.88926
▁else	-8.89263
▁economic	-8.89563
▁forward	-8.90052
▁code	-8.90111
E	-8.90154
▁March	-8.90156
▁needs	-8.90415
▁Republican	-8.90766
▁online	-8.90923
This	-8.91045
▁Department	-8.91076
▁longer	-8.91261
▁anti	-8.91459
▁N	-8.91896
▁build	-8.92279
▁room	-8.9242
▁mind	-8.92522
▁June	-8.92862
▁article	-8.92951
▁special	-8.93302
▁understand	-8.93418
▁strong	-8.93499
▁held	-8.93503
▁potential	-8.93535
▁Here	-8.93687
▁/	-8.93697
▁changes	-8.93952
▁view	-8.9426
▁higher	-8.94486
▁billion	-8.94583
▁fight	-8.94814
▁music	-8.94914
▁According	-8.94932
▁weeks	-8.95243
▁anyone	-8.95336
▁bring	-8.95857
▁official	-8.95868
▁West	-8.95998
▁rate	-8.96028
▁increase	-8.962
▁words	-8.96286
▁Friday	-8.96449
G	-8.9645
▁services	-8.96583
▁technology	-8.96684
▁test	-8.96722
▁house	-8.96869
it	-8.96877
▁July	-8.96879
▁age	-8.97139
▁air	-8.97201
▁co	-8.97284
▁results	-8.97423
▁friends	-8.97704
▁earlier	-8.97786
▁|	-8.97895
▁announced	-8.97943
▁Not	-8.98008
▁minutes	-8.9817
▁created	-8.98213
▁bill	-8.98247
▁hope	-8.98292
▁expected	-8.98375
▁received	-8.98573
▁L	-8.98574
▁total	-8.98653
▁News	-8.98842
▁led	-8.99044
▁allow	-8.99112
▁share	-8.99321
z	-8.99737
▁private	-8.99816
▁certain	-8.99881
▁H	-9.00077
▁problems	-9.00144
▁common	-9.00231
▁field	-9.0028
▁St	-9.00321
▁legal	-9.00329
▁interest	-9.0035
▁Monday	-9.00625
▁soon	-9.00646
▁average	-9.0075
▁involved	-9.00762
F	-9.01108
▁cannot	-9.01241
▁leave	-9.01243
▁original	-9.01257
▁shot	-9.01262
▁@	-9.01332
▁April	-9.01372
▁international	-9.0139
▁easy	-9.01422
5	-9.01563
▁0	-9.01592
▁force	-9.01618
▁amount	-9.01749
–	-9.02263
▁nearly	-9.02297
▁Tuesday	-9.02373
▁2015	-9.02403
▁design	-9.02433
▁rest	-9.02924
▁response	-9.02984
▁wrong	-9.03202
▁Russia	-9.03431
▁inside	-9.03555
▁source	-9.03613
▁phone	-9.03629
us	-9.0379
▁questions	-9.03811
▁type	-9.03856
▁personal	-9.03975
▁price	-9.04187
▁killed	-9.04247
▁users	-9.04345
▁#	-9.04459
▁director	-9.04478
▁living	-9.04585
▁worked	-9.04599
▁cut	-9.0462
is	-9.0471
▁child	-9.04919
▁Even	-9.05089
▁moment	-9.05261
▁published	-9.05282
▁goal	-9.05348
ness	-9.05441
▁San	-9.05662
N	-9.05759
▁financial	-9.05847
▁risk	-9.05922
▁fans	-9.05972
▁effect	-9.05997
▁God	-9.06027
▁18	-9.06065
...	-9.06115
▁content	-9.06216
In	-9.0622
▁difficult	-9.06304
▁War	-9.06612
▁member	-9.06763
▁ability	-9.06764
▁gave	-9.06824
▁entire	-9.0689
▁reports	-9.06999
▁W	-9.07313
▁David	-9.07366
▁Americans	-9.07548
▁oil	-9.07677
▁January	-9.0781
▁al	-9.07992
time	-9.08001
based	-9.08041
▁happened	-9.08059
▁workers	-9.08089
▁September	-9.08179
▁administration	-9.08271
▁meeting	-9.08352
▁chance	-9.08402
▁period	-9.08473
▁situation	-9.08504
▁ground	-9.08684
▁*	-9.0876
▁currently	-9.08778
▁global	-9.0892
▁European	-9.0894
▁terms	-9.08994
▁November	-9.09038
▁Thursday	-9.09199
▁cases	-9.09287
▁More	-9.09324
▁16	-9.09386
▁character	-9.09391
▁fire	-9.0941
▁Wednesday	-9.09449
▁whose	-9.09587
▁model	-9.098
▁add	-9.09826
▁Sunday	-9.09882
▁decided	-9.09937
▁career	-9.10026
▁goes	-9.1009
no	-9.10146
▁ways	-9.10148
▁$	-9.10381
▁couple	-9.10488
▁race	-9.1058
▁via	-9.10609
▁sent	-9.10904
▁turned	-9.10993
▁Canada	-9.11201
▁website	-9.11829
▁page	-9.1184
▁performance	-9.11929
▁simple	-9.12074
▁step	-9.12387
▁felt	-9.12399
▁works	-9.12554
▁lives	-9.12668
▁production	-9.12689
▁2014	-9.12769
▁TV	-9.12816
▁quickly	-9.12821
▁plans	-9.13002
▁First	-9.13073
▁happen	-9.13243
▁October	-9.13433
▁economy	-9.13746
ism	-9.13897
▁2017	-9.1393
▁trade	-9.13962
▁staff	-9.13982
▁popular	-9.13984
▁email	-9.13996
You	-9.14112
▁land	-9.1428
▁British	-9.14449
▁takes	-9.14461
v	-9.14481
▁spent	-9.14483
▁heard	-9.14627
▁network	-9.14684
co	-9.14766
▁{	-9.14999
▁e	-9.15061
▁i	-9.15131
▁Paul	-9.15164
▁built	-9.15172
▁areas	-9.15479
▁Congress	-9.15576
▁account	-9.15599
▁interview	-9.15813
▁morning	-9.15905
▁Israel	-9.15906
▁cause	-9.15956
▁Of	-9.16024
▁offer	-9.16048
▁significant	-9.16169
▁seem	-9.16261
▁Dr	-9.16281
▁included	-9.1638
▁events	-9.16596
▁tried	-9.16764
▁California	-9.16778
▁ask	-9.16811
▁Then	-9.16939
▁August	-9.16971
▁huge	-9.17326
▁Europe	-9.17386
▁Russian	-9.17397
▁Court	-9.17443
▁100	-9.17604
▁hold	-9.17614
He	-9.17677
as	-9.17723
▁population	-9.17812
▁teams	-9.18002
▁word	-9.18008
▁movement	-9.18021
▁Street	-9.1805
▁Do	-9.18075
▁knew	-9.18227
▁foreign	-9.18235
▁allowed	-9.1826
▁attention	-9.18334
▁father	-9.18354
▁particular	-9.18363
▁December	-9.18372
▁image	-9.18884
▁various	-9.18919
▁press	-9.18987
▁X	-9.19057
▁growth	-9.19092
u	-9.19138
ist	-9.19503
▁brought	-9.19798
?”	-9.19849
▁previous	-9.19888
▁50	-9.19942
▁size	-9.19986
▁focus	-9.2
▁lower	-9.20086
▁present	-9.2013
If	-9.20267
ic	-9.20447
▁UK	-9.20524
▁forces	-9.2093
▁investigation	-9.21029
▁impact	-9.212
▁individual	-9.21225
6	-9.2127
▁leader	-9.21406
▁14	-9.2144
▁numbers	-9.2157
▁Senate	-9.21573
▁training	-9.21626
▁rules	-9.2175
▁13	-9.21797
▁learn	-9.21848
▁V	-9.2191
▁Center	-9.22053
▁latest	-9.22066
▁Party	-9.22378
▁mother	-9.22717
▁follow	-9.22824
There	-9.22962
▁medical	-9.22982
▁Saturday	-9.23057
▁From	-9.23065
▁pre	-9.23065
▁Times	-9.23195
▁approach	-9.23335
▁17	-9.23372
▁address	-9.23809
▁Police	-9.23872
▁considered	-9.23914
▁25	-9.2403
▁India	-9.24111
▁talking	-9.24351
▁...	-9.24386
▁features	-9.24578
ity	-9.24687
▁worth	-9.24797
▁addition	-9.24915
L	-9.2495
▁language	-9.25046
▁nation	-9.25074
▁board	-9.25583
▁fall	-9.25761
▁wants	-9.25862
▁leaders	-9.25901
▁Donald	-9.2596
▁check	-9.26094
el	-9.26115
▁upon	-9.26248
▁buy	-9.26318
▁sign	-9.26357
▁looks	-9.26383
7	-9.2647
▁message	-9.26642
▁success	-9.26739
▁parents	-9.26774
le	-9.26849
▁County	-9.27097
▁Michael	-9.2712
▁movie	-9.27153
▁written	-9.27154
▁science	-9.27301
▁De	-9.2734
▁seven	-9.27716
▁Or	-9.27835
▁Al	-9.27926
▁2013	-9.28014
▁range	-9.28055
▁friend	-9.28207
▁Re	-9.28345
▁effort	-9.28417
▁majority	-9.28428
8	-9.28432
▁hands	-9.28578
▁completely	-9.28685
▁guy	-9.28712
O	-9.28901
▁heart	-9.28923
▁base	-9.28966
▁answer	-9.29048
▁February	-9.29066
▁app	-9.29099
▁pass	-9.2913
▁society	-9.29208
▁particularly	-9.29235
▁opportunity	-9.29249
▁biggest	-9.29283
▁despite	-9.29293
▁violence	-9.29338
▁climate	-9.29346
▁son	-9.29444
▁practice	-9.29458
▁East	-9.29548
▁stay	-9.29567
▁watch	-9.29601
W	-9.29657
▁)	-9.29734
▁expect	-9.29808
J	-9.29837
▁summer	-9.29838
▁user	-9.29902
▁club	-9.30221
▁London	-9.3024
▁product	-9.30309
▁exactly	-9.30411
▁officers	-9.30454
▁claims	-9.30487
▁hear	-9.30638
▁complete	-9.30659
▁jobs	-9.30699
▁James	-9.30767
▁levels	-9.30797
▁term	-9.30888
▁stories	-9.30968
▁serious	-9.31068
▁pick	-9.31097
w	-9.31114
▁drug	-9.31151
▁stand	-9.31183
0	-9.31271
▁required	-9.31274
▁2012	-9.31399
▁break	-9.31478
▁writing	-9.31486
▁natural	-9.31502
▁sort	-9.31605
▁paid	-9.3161
▁specific	-9.31624
▁pro	-9.31853
▁paper	-9.31916
▁interesting	-9.31943
▁gun	-9.31981
▁function	-9.32003
▁reading	-9.32084
▁looked	-9.32117
▁attacks	-9.32127
▁described	-9.32305
▁certainly	-9.3231
▁products	-9.32344
▁leading	-9.32396
▁Republicans	-9.3241
of	-9.32452
▁details	-9.32485
▁town	-9.32557
▁systems	-9.32697
▁relationship	-9.32701
▁giving	-9.32862
▁sometimes	-9.32878
▁education	-9.32958
▁named	-9.32961
▁quality	-9.32987
▁act	-9.33047
▁Democratic	-9.33124
▁changed	-9.33253
▁finally	-9.33496
▁starting	-9.33496
▁region	-9.33516
▁showed	-9.33528
▁file	-9.33724
▁:	-9.33869
▁sound	-9.33925
▁Most	-9.34053
▁Black	-9.34089
9	-9.34124
▁gets	-9.34128
▁…	-9.34162
▁multiple	-9.34163
▁aren	-9.3419
▁Since	-9.34213
▁Apple	-9.34228
▁League	-9.34307
▁culture	-9.34314
▁Chinese	-9.34324
▁+	-9.3437
▁claim	-9.34389
▁red	-9.34434
▁Many	-9.34446
▁sex	-9.34474
▁fun	-9.34645
▁write	-9.34767
▁damage	-9.34948
▁Why	-9.34967
▁Just	-9.35
▁growing	-9.35081
▁provided	-9.35257
▁continued	-9.35257
▁chief	-9.35287
▁costs	-9.35423
▁Act	-9.35452
▁middle	-9.35476
▁ready	-9.35487
▁comments	-9.35572
▁defense	-9.3568
▁cover	-9.35737
▁eight	-9.35744
less	-9.35897
▁kids	-9.36041
▁remains	-9.36067
▁Let	-9.36205
▁thinking	-9.36232
▁student	-9.36368
▁died	-9.36539
▁directly	-9.36646
▁lack	-9.36823
▁Minister	-9.37044
▁wouldn	-9.37071
▁match	-9.37363
>	-9.37444
▁modern	-9.37535
ar	-9.3757
▁voters	-9.37582
▁debate	-9.37814
▁perhaps	-9.37817
▁although	-9.37855
▁reality	-9.38002
▁usually	-9.3801
▁software	-9.38022
▁efforts	-9.38032
▁sexual	-9.38146
▁choice	-9.3815
▁meet	-9.38192
▁Texas	-9.38199
▁(@	-9.38328
▁increased	-9.38408
▁comment	-9.3842
▁scene	-9.38421
▁remain	-9.38424
▁officer	-9.38635
▁letter	-9.38836
▁figure	-9.39043
▁immediately	-9.3918
▁stuff	-9.39211
▁beyond	-9.39215
▁speech	-9.39265
▁Democrats	-9.39301
▁http	-9.39329
▁consider	-9.3936
▁couldn	-9.39407
▁designed	-9.39425
▁pressure	-9.39511
▁throughout	-9.39521
▁road	-9.39558
▁art	-9.39567
▁gas	-9.39611
▁additional	-9.3976
▁alone	-9.39832
at	-9.39846
▁}	-9.39865
▁receive	-9.39902
▁toward	-9.39913
▁stage	-9.39954
ie	-9.40062
de	-9.40118
▁towards	-9.4016
▁wife	-9.40198
▁piece	-9.4022
▁calls	-9.40294
▁computer	-9.40548
▁dead	-9.40597
▁center	-9.40723
▁football	-9.40869
▁agency	-9.41085
▁guys	-9.41097
▁gone	-9.41136
▁Park	-9.41177
▁moved	-9.41241
H	-9.41291
▁Post	-9.41315
▁beginning	-9.41365
▁standard	-9.41368
▁safety	-9.41459
ton	-9.41576
▁includes	-9.4158
"".	-9.41595
▁passed	-9.41596
▁met	-9.41648
rs	-9.41693
▁loss	-9.41917
▁device	-9.41938
▁40	-9.4197
▁store	-9.42108
▁date	-9.42199
▁search	-9.42286
▁coach	-9.42455
▁24	-9.42491
▁ball	-9.42562
X	-9.42643
▁league	-9.42684
▁effects	-9.42742
ation	-9.42747
▁21	-9.42805
▁Red	-9.42958
▁Advertisement	-9.43049
▁thousands	-9.43156
▁ahead	-9.43221
▁Our	-9.43251
▁card	-9.43349
▁laws	-9.43372
▁property	-9.43407
▁organization	-9.43921
▁title	-9.43948
▁track	-9.43993
▁candidate	-9.44111
am	-9.44275
▁conference	-9.44379
▁executive	-9.44531
▁drive	-9.44635
▁helped	-9.44737
by	-9.4477
▁capital	-9.44773
out	-9.44836
▁moving	-9.44918
▁century	-9.44957
▁19	-9.45035
▁spending	-9.45121
▁remember	-9.45123
+	-9.45178
▁environment	-9.45219
▁Although	-9.45223
un	-9.45267
▁difference	-9.45284
▁reach	-9.45374
▁subject	-9.45431
▁Last	-9.45442
▁largest	-9.45902
▁parts	-9.45997
▁review	-9.46041
▁conditions	-9.46121
▁English	-9.46146
▁nature	-9.46179
▁failed	-9.4619
▁happy	-9.46249
▁nuclear	-9.463
?""	-9.46301
▁maybe	-9.46405
▁fast	-9.46415
▁powerful	-9.46521
▁income	-9.46582
▁George	-9.46583
▁myself	-9.46611
They	-9.46623
▁college	-9.46719
▁appears	-9.46831
▁deep	-9.46923
▁Syria	-9.46968
▁German	-9.47003
▁characters	-9.47109
▁Don	-9.47167
▁Germany	-9.47178
▁budget	-9.47234
▁French	-9.47453
▁visit	-9.47501
&	-9.47519
▁speed	-9.47544
V	-9.47548
▁feature	-9.47616
▁People	-9.47619
▁protect	-9.47641
▁charge	-9.47705
▁presidential	-9.47741
▁Bill	-9.47759
▁eventually	-9.478
▁Man	-9.47832
▁International	-9.47866
▁Australia	-9.47954
▁shown	-9.48137
▁limited	-9.48191
▁compared	-9.48537
▁senior	-9.48628
▁La	-9.48714
te	-9.48732
▁round	-9.48767
▁threat	-9.48799
▁target	-9.48853
▁forced	-9.48991
▁religious	-9.48991
▁attempt	-9.48995
▁necessary	-9.49115
▁followed	-9.49115
▁cent	-9.49155
▁reasons	-9.49516
▁Because	-9.49639
▁families	-9.49738
▁yourself	-9.49784
▁politics	-9.49877
▁appear	-9.49879
▁<	-9.49983
▁easily	-9.50184
▁signed	-9.50239
▁poor	-9.50252
ling	-9.50274
▁Day	-9.5031
▁2011	-9.50325
▁treatment	-9.50352
▁analysis	-9.50489
▁avoid	-9.51042
▁brain	-9.51042
▁overall	-9.51145
▁Mark	-9.51149
▁contract	-9.51312
▁eyes	-9.51315
▁During	-9.51317
son	-9.51372
▁crime	-9.51468
=	-9.51555
▁crisis	-9.5157
▁Smith	-9.51592
▁allows	-9.51779
▁begin	-9.51807
▁challenge	-9.5181
▁customers	-9.51904
▁schools	-9.51936
▁credit	-9.52034
▁option	-9.52157
ian	-9.52311
▁decades	-9.52345
▁material	-9.52423
▁intelligence	-9.52513
▁Like	-9.52628
▁King	-9.52677
▁positive	-9.52717
@	-9.52775
▁appeared	-9.52964
▁Star	-9.53027
▁safe	-9.5304
▁General	-9.53135
▁EU	-9.53282
▁shooting	-9.53298
▁Well	-9.53416
▁screen	-9.53522
▁developed	-9.53631
▁books	-9.5365
▁benefits	-9.53652
▁Union	-9.53737
▁fully	-9.53791
▁physical	-9.54214
▁extra	-9.54276
▁rule	-9.54398
▁actions	-9.54506
▁Iran	-9.54523
▁previously	-9.54525
▁fear	-9.5468
▁manager	-9.54698
▁blood	-9.54727
▁weapons	-9.54947
▁save	-9.54966
▁Council	-9.54996
▁School	-9.55095
▁Also	-9.55184
▁Internet	-9.55286
▁contact	-9.55359
j	-9.55368
ment	-9.55379
▁larger	-9.55619
▁spend	-9.55742
▁primary	-9.55746
▁voice	-9.55808
▁note	-9.55903
▁Read	-9.55941
▁policies	-9.56304
▁related	-9.56346
▁France	-9.56407
na	-9.56425
▁seemed	-9.5645
▁Earth	-9.56484
▁successful	-9.56502
▁rise	-9.56628
▁central	-9.56686
▁star	-9.56709
▁clearly	-9.56755
land	-9.56781
▁regular	-9.56851
▁Two	-9.56955
▁noted	-9.56974
▁kept	-9.57009
▁cities	-9.57022
▁highly	-9.57042
▁Hillary	-9.5719
▁reached	-9.57217
▁Iraq	-9.5723
▁Another	-9.57341
▁projects	-9.57381
▁gives	-9.57411
▁block	-9.57449
▁researchers	-9.57513
▁send	-9.57668
▁ideas	-9.57679
▁calling	-9.57735
▁continues	-9.57751
like	-9.57848
▁greater	-9.5787
▁battle	-9.57878
▁favorite	-9.57887
▁box	-9.57912
▁speak	-9.58146
▁2010	-9.58157
term	-9.58339
▁rates	-9.58409
▁Her	-9.58483
▁incident	-9.58496
▁resources	-9.58502
▁individuals	-9.58525
▁direct	-9.58538
▁employees	-9.5855
▁feet	-9.58605
▁criminal	-9.58677
▁unique	-9.58678
▁options	-9.58681
▁fighting	-9.58789
▁England	-9.58966
▁status	-9.59141
day	-9.59171
▁caused	-9.59296
▁Be	-9.59361
▁door	-9.59458
line	-9.59527
▁claimed	-9.59632
▁table	-9.59681
▁activity	-9.5982
▁fine	-9.59864
▁female	-9.59998
▁funding	-9.6
▁sales	-9.60003
▁Other	-9.60014
be	-9.60155
▁band	-9.60205
▁goals	-9.60237
▁style	-9.60262
▁raised	-9.60399
▁weekend	-9.60457
▁adding	-9.60479
▁eye	-9.60515
▁traditional	-9.60557
▁perfect	-9.60584
▁agreement	-9.60602
▁sold	-9.60655
one	-9.60728
▁Chicago	-9.60985
▁basic	-9.61039
▁•	-9.61106
▁studies	-9.61213
▁Your	-9.61246
▁haven	-9.61261
▁programs	-9.6127
▁author	-9.61333
ry	-9.61349
▁ended	-9.61558
▁ensure	-9.61582
▁authorities	-9.61601
▁mass	-9.61695
▁bank	-9.61728
▁concerns	-9.61769
▁demand	-9.61813
▁Japan	-9.61876
▁leaving	-9.6191
ion	-9.61939
▁creating	-9.62107
▁patients	-9.62137
▁Florida	-9.62238
▁lines	-9.62356
▁knowledge	-9.62356
▁launch	-9.62422
▁minister	-9.62539
▁application	-9.6273
▁sources	-9.62767
▁wide	-9.62807
▁charges	-9.62827
▁text	-9.63036
▁Q	-9.63242
▁require	-9.63297
ne	-9.63382
▁nice	-9.63463
What	-9.63493
▁truth	-9.6352
ia	-9.63567
▁complex	-9.63574
▁wait	-9.63656
▁prices	-9.6367
ley	-9.63693
▁independent	-9.63721
ra	-9.63806
▁offered	-9.63836
▁actual	-9.63881
▁prison	-9.64089
▁posted	-9.64111
▁v	-9.64174
▁improve	-9.64183
▁photo	-9.6428
▁girl	-9.64407
for	-9.64416
▁influence	-9.64434
▁choose	-9.6445
▁produce	-9.64455
▁prevent	-9.64494
▁seeing	-9.64517
▁web	-9.64551
▁picture	-9.64561
▁f	-9.64681
▁mid	-9.64853
▁benefit	-9.64949
U	-9.64967
▁22	-9.65099
▁Yes	-9.65118
▁happens	-9.65155
▁Justice	-9.65177
▁Instead	-9.6521
▁meant	-9.65253
▁parties	-9.65391
▁Co	-9.65448
▁arrested	-9.65486
▁x	-9.65505
▁opening	-9.65573
▁massive	-9.6562
▁mostly	-9.65662
▁Sanders	-9.65704
▁whatever	-9.65837
▁hour	-9.65934
▁Mike	-9.65978
▁push	-9.66051
▁confirmed	-9.66064
▁Once	-9.66161
▁Pro	-9.66204
▁Bush	-9.66247
▁lose	-9.6637
▁feeling	-9.66391
▁request	-9.66394
▁citizens	-9.66418
▁revealed	-9.66538
▁believed	-9.66576
▁strategy	-9.66679
▁showing	-9.667
▁normal	-9.66772
▁Brown	-9.66996
"",	-9.67038
▁firm	-9.67104
▁platform	-9.67105
▁produced	-9.6714
▁uses	-9.67202
▁Green	-9.67212
▁residents	-9.67249
▁places	-9.67297
▁travel	-9.67392
▁debt	-9.67414
▁sell	-9.67425
);	-9.6743
▁opposition	-9.67578
▁fan	-9.676
▁Committee	-9.6763
▁street	-9.67673
▁devices	-9.67885
▁learned	-9.67917
id	-9.67924
▁grow	-9.68058
▁investment	-9.68101
▁Johnson	-9.68257
▁solution	-9.68288
▁trial	-9.68347
▁color	-9.68379
▁song	-9.68489
But	-9.68576
▁Image	-9.68659
▁operations	-9.68745
▁memory	-9.68808
▁digital	-9.68947
▁Can	-9.68949
▁civil	-9.68996
▁dollars	-9.69029
▁values	-9.69098
▁Canadian	-9.69116
▁asking	-9.69136
▁agree	-9.69174
▁critical	-9.69298
www	-9.69315
That	-9.69339
▁agreed	-9.69452
▁Over	-9.69563
▁$1	-9.69631
▁Office	-9.69666
Y	-9.69669
▁border	-9.69711
▁Korea	-9.69713
▁Z	-9.69721
▁NFL	-9.69843
▁etc	-9.69894
▁section	-9.6992
▁straight	-9.69949
▁Press	-9.7001
▁marriage	-9.70042
▁Cup	-9.70356
▁Health	-9.70394
▁super	-9.70397
▁opinion	-9.70418
ty	-9.70486
▁Security	-9.70652
▁records	-9.70757
▁whom	-9.70764
▁spot	-9.70832
▁fit	-9.70846
▁Photo	-9.70867
▁walk	-9.70937
▁effective	-9.71069
▁Chris	-9.71076
▁60	-9.71095
▁worse	-9.71122
▁highest	-9.71225
▁interested	-9.71225
▁join	-9.71231
▁Go	-9.71254
▁images	-9.71301
▁kill	-9.71372
▁freedom	-9.71538
▁television	-9.71557
▁theory	-9.71732
▁Los	-9.71754
ch	-9.71898
▁separate	-9.71901
Z	-9.71981
▁proposed	-9.72055
▁learning	-9.72159
▁hospital	-9.72164
▁respect	-9.72167
▁miles	-9.72175
▁host	-9.72208
▁daily	-9.72246
▁Christian	-9.72391
▁Western	-9.72408
▁illegal	-9.72448
▁responsible	-9.72492
▁weight	-9.72565
▁Institute	-9.72648
▁Those	-9.72681
▁reduce	-9.72681
▁male	-9.72686
▁Robert	-9.72731
▁judge	-9.72743
▁basis	-9.72757
▁cars	-9.72757
”.	-9.72764
do	-9.7278
▁generally	-9.72835
os	-9.72859
▁ran	-9.72898
▁path	-9.72901
▁method	-9.7302
▁Islamic	-9.73105
go	-9.73122
▁provides	-9.73302
▁bar	-9.73527
▁understanding	-9.73551
ized	-9.7356
off	-9.73573
▁c	-9.73656
▁Muslim	-9.7369
▁behavior	-9.73776
▁camera	-9.73784
▁serve	-9.74032
▁green	-9.7415
▁album	-9.74319
▁becoming	-9.74348
▁explained	-9.74349
▁winning	-9.74356
▁born	-9.74368
▁opened	-9.74391
▁Both	-9.74413
▁internet	-9.74518
▁mission	-9.74586
▁station	-9.74587
▁department	-9.74597
▁advantage	-9.74658
▁audience	-9.74719
▁drop	-9.74759
▁dark	-9.74807
▁offers	-9.74857
▁Jones	-9.74978
▁blog	-9.75025
▁machine	-9.75072
▁species	-9.75119
▁legislation	-9.75199
▁Windows	-9.75219
▁See	-9.75227
▁Game	-9.75269
▁accused	-9.75276
▁Israeli	-9.75319
▁scientists	-9.75346
nd	-9.75465
▁professional	-9.75488
▁active	-9.75547
*	-9.7556
▁location	-9.75581
▁double	-9.75674
▁carry	-9.75675
▁management	-9.75764
▁hundreds	-9.75809
▁runs	-9.75893
▁committee	-9.75971
org	-9.75994
▁meaning	-9.7614
▁putting	-9.76203
▁hearing	-9.76333
▁Super	-9.76356
▁documents	-9.76395
▁episode	-9.76416
▁served	-9.76427
▁shared	-9.766
▁explain	-9.76629
▁Fox	-9.76637
▁existing	-9.76708
▁victims	-9.76729
▁names	-9.76752
▁knows	-9.76767
▁onto	-9.76772
▁23	-9.76819
▁easier	-9.76879
men	-9.76949
▁thus	-9.76971
la	-9.76995
▁extremely	-9.77029
▁communities	-9.77062
▁instance	-9.77142
▁bottom	-9.77249
▁nine	-9.77266
▁Britain	-9.77272
▁Despite	-9.773
▁ice	-9.77301
▁argument	-9.77406
▁fair	-9.77421
▁Big	-9.77605
▁structure	-9.77677
▁conservative	-9.77713
▁types	-9.77752
▁church	-9.77841
▁traffic	-9.77896
▁core	-9.77989
▁floor	-9.78014
▁competition	-9.78079
▁returned	-9.7813
▁Bank	-9.78135
▁cast	-9.78189
▁coverage	-9.78193
▁decade	-9.7829
▁spoke	-9.78309
When	-9.78317
▁associated	-9.7832
▁FBI	-9.78353
▁die	-9.78384
▁Tom	-9.78416
▁develop	-9.78532
▁ban	-9.7861
▁vehicle	-9.78711
▁mobile	-9.78822
▁trust	-9.78866
▁Their	-9.78872
▁issued	-9.78946
▁pain	-9.7918
▁secret	-9.79189
ner	-9.79222
▁launched	-9.79262
▁quick	-9.79279
▁cool	-9.79286
▁Indian	-9.79298
▁supported	-9.79354
▁definitely	-9.79375
▁watching	-9.79503
▁unit	-9.79537
ro	-9.7955
▁leadership	-9.79587
And	-9.79592
▁Yet	-9.79612
we	-9.79689
▁Today	-9.79779
▁vs	-9.79945
▁insurance	-9.79965
▁supporters	-9.7999
not	-9.80025
▁link	-9.80027
▁Martin	-9.80058
▁businesses	-9.80129
▁Air	-9.80139
▁spread	-9.80186
▁doubt	-9.80208
▁2008	-9.80281
▁marijuana	-9.80346
which	-9.80401
▁stated	-9.80692
▁victory	-9.8074
▁blue	-9.80836
▁worst	-9.80838
▁telling	-9.80915
▁gay	-9.81065
▁1,	-9.81105
▁dangerous	-9.81153
▁justice	-9.81221
▁ten	-9.81242
▁charged	-9.81249
▁concern	-9.81306
▁finding	-9.81326
▁daughter	-9.8139
▁2009	-9.81392
▁measure	-9.81429
▁entirely	-9.81596
▁smaller	-9.8168
▁please	-9.81693
▁radio	-9.81704
▁discovered	-9.81716
▁disease	-9.8179
▁closed	-9.81832
[	-9.81848
▁plant	-9.81902
▁cash	-9.81918
ta	-9.82013
▁Government	-9.82038
he	-9.82093
▁Microsoft	-9.82195
▁raise	-9.82199
▁tools	-9.82212
▁generation	-9.82313
▁Bitcoin	-9.82356
▁Association	-9.82421
▁driving	-9.82429
▁construction	-9.82481
▁suggested	-9.82572
▁Bay	-9.82663
▁nor	-9.82727
▁cards	-9.82737
▁becomes	-9.82812
▁II	-9.82827
▁concept	-9.82834
▁Group	-9.82885
▁notes	-9.8296
▁Please	-9.82967
da	-9.83018
▁driver	-9.83096
▁draft	-9.83128
!”	-9.83149
▁direction	-9.83225
▁object	-9.8323
▁initial	-9.83274
▁Time	-9.83277
▁African	-9.83356
▁crowd	-9.8336
▁surface	-9.83369
▁map	-9.83414
▁heavy	-9.83415
▁concerned	-9.83416
▁items	-9.83462
▁wall	-9.83468
▁holding	-9.83472
▁clean	-9.83611
▁High	-9.83665
▁millions	-9.83722
▁truly	-9.83796
▁sites	-9.83798
▁animals	-9.83833
▁annual	-9.83947
▁cross	-9.84015
▁older	-9.84047
▁Wall	-9.84091
▁banks	-9.84121
▁la	-9.84201
▁caught	-9.84217
▁testing	-9.84266
▁hot	-9.84333
▁enforcement	-9.84448
▁allowing	-9.84463
▁cancer	-9.84503
▁purpose	-9.84609
▁abuse	-9.84615
me	-9.84724
▁Ben	-9.84741
▁spokesman	-9.84745
▁update	-9.8476
▁aware	-9.84877
▁Thomas	-9.8493
▁Le	-9.84973
▁housing	-9.85009
▁negative	-9.85041
if	-9.85061
▁largely	-9.85068
▁accept	-9.85087
▁progress	-9.85183
▁Africa	-9.85201
▁m	-9.85277
▁Me	-9.85314
ting	-9.85377
▁planning	-9.85389
▁supposed	-9.85437
▁sea	-9.8551
▁suggest	-9.85531
age	-9.8556
▁Who	-9.85597
ter	-9.85608
▁enjoy	-9.857
▁requires	-9.8572
▁views	-9.85796
▁activities	-9.85852
▁scale	-9.85869
▁drugs	-9.8588
▁Scott	-9.85904
▁gold	-9.8601
▁introduced	-9.8618
▁presence	-9.86249
▁Sen	-9.86364
▁Research	-9.86431
▁conflict	-9.86435
▁placed	-9.86461
▁candidates	-9.86487
▁husband	-9.86504
▁providing	-9.86529
▁brand	-9.8657
▁waiting	-9.86584
▁Ryan	-9.86632
▁established	-9.86757
▁Android	-9.86795
▁exchange	-9.8681
▁THE	-9.86924
but	-9.86959
▁Great	-9.87015
▁display	-9.87024
▁Japanese	-9.87121
▁conversation	-9.87132
▁cells	-9.87187
▁discussion	-9.87416
▁fell	-9.87481
per	-9.87514
▁Mexico	-9.87538
▁tool	-9.87552
▁slow	-9.87578
▁Angeles	-9.87583
end	-9.87621
▁sub	-9.87672
ies	-9.87756
▁boy	-9.87758
▁beat	-9.87816
▁stopped	-9.87907
▁28	-9.87909
▁Jewish	-9.87922
▁joined	-9.87947
▁Church	-9.87967
▁GOP	-9.87986
▁mentioned	-9.87998
▁missing	-9.88043
▁owner	-9.88043
▁Will	-9.88112
▁commercial	-9.88182
▁removed	-9.88248
▁gender	-9.8831
▁hair	-9.88372
▁Prime	-9.88631
▁willing	-9.88659
▁focused	-9.88728
▁injury	-9.8873
ma	-9.88771
▁ship	-9.888
▁27	-9.88846
▁setting	-9.88856
led	-9.88873
▁Supreme	-9.88974
▁26	-9.89105
No	-9.8936
▁camp	-9.8942
▁condition	-9.89508
▁connection	-9.89543
▁committed	-9.89546
As	-9.89781
▁n	-9.89833
▁trip	-9.89896
▁operation	-9.89921
ir	-9.89943
▁taxes	-9.9003
▁dog	-9.90053
▁hasn	-9.90117
▁collection	-9.90288
ca	-9.90367
▁cell	-9.90384
▁managed	-9.90458
▁ones	-9.90547
▁peace	-9.90556
▁identity	-9.90561
▁Free	-9.90651
ization	-9.9068
▁identified	-9.90774
▁exist	-9.90856
▁girls	-9.90902
▁keeping	-9.90905
▁professor	-9.90909
▁arrived	-9.90937
▁skills	-9.90941
▁fourth	-9.91018
▁Peter	-9.91166
so	-9.91173
▁gain	-9.91209
▁background	-9.91289
):	-9.91296
▁relatively	-9.91389
ad	-9.91488
▁useful	-9.91518
▁stock	-9.91526
▁believes	-9.91558
▁photos	-9.91739
▁otherwise	-9.91763
▁measures	-9.91822
▁Un	-9.91858
▁therefore	-9.9186
▁killing	-9.91947
ally	-9.92061
▁sports	-9.92127
▁Amazon	-9.92197
▁obvious	-9.92215
▁tells	-9.92216
▁finished	-9.92443
▁train	-9.92481
▁slightly	-9.92488
▁figures	-9.92703
▁happening	-9.92708
▁notice	-9.92759
▁funds	-9.92978
For	-9.93046
▁supply	-9.9306
▁quarter	-9.93083
▁failure	-9.93124
▁Y	-9.93191
▁Army	-9.93237
▁prior	-9.93254
▁interests	-9.93314
▁victim	-9.93355
▁Toronto	-9.93414
▁command	-9.93451
▁decide	-9.93509
▁brother	-9.93546
▁birth	-9.93596
▁decisions	-9.93706
▁Hall	-9.93723
▁College	-9.93759
▁bigger	-9.93856
▁Lee	-9.93857
Q	-9.94079
▁Syrian	-9.94151
▁1.	-9.94185
est	-9.94236
▁tough	-9.94257
il	-9.94354
▁increasing	-9.94376
▁murder	-9.9438
▁Hill	-9.94413
▁offensive	-9.94451
▁draw	-9.94451
▁plays	-9.94471
▁fellow	-9.94494
▁net	-9.94517
▁Under	-9.94519
▁Commission	-9.94543
▁domestic	-9.94555
um	-9.94598
▁reform	-9.94686
▁district	-9.94762
▁fuel	-9.94776
▁score	-9.94796
▁filed	-9.94811
▁context	-9.94863
▁CEO	-9.94898
ish	-9.94963
▁speaking	-9.94983
▁Secretary	-9.95025
▁amazing	-9.95065
▁suggests	-9.95084
▁steps	-9.95165
▁immigration	-9.95224
▁mental	-9.95254
▁standing	-9.95353
▁alternative	-9.95381
▁sit	-9.95382
▁counter	-9.95392
back	-9.95407
▁planned	-9.95495
all	-9.95539
▁partner	-9.95653
▁false	-9.95732
▁Service	-9.95752
▁et	-9.95806
▁Richard	-9.95837
▁Get	-9.95871
▁Foundation	-9.96006
▁thanks	-9.96143
▁carried	-9.96145
▁dropped	-9.96249
▁balance	-9.96252
▁window	-9.96267
▁task	-9.96388
▁corporate	-9.96465
rd	-9.96524
▁Central	-9.96567
▁>	-9.96598
▁standards	-9.9681
▁faith	-9.96886
▁elements	-9.97102
▁variety	-9.97211
▁writer	-9.97228
▁Joe	-9.97248
▁protection	-9.9727
▁helping	-9.97372
▁ex	-9.97398
▁wish	-9.97414
▁increasingly	-9.97456
▁organizations	-9.97486
▁environmental	-9.97527
▁developers	-9.97603
▁assault	-9.97625
▁degree	-9.97628
▁District	-9.9763
▁imagine	-9.97718
▁heat	-9.97772
▁El	-9.97847
▁Media	-9.98001
▁religion	-9.98027
▁impossible	-9.98127
▁files	-9.98129
▁Sun	-9.98142
▁operating	-9.9819
▁poll	-9.98203
▁Public	-9.98252
▁attorney	-9.98361
▁army	-9.9837
▁d	-9.98389
▁percentage	-9.98465
ur	-9.98555
▁models	-9.98587
▁ruling	-9.98969
▁Steve	-9.98994
▁skin	-9.99021
▁possibly	-9.99053
▁twice	-9.99066
▁flight	-9.99093
▁agencies	-9.99096
▁cuts	-9.99108
▁talks	-9.9931
▁beer	-9.99335
▁animal	-9.99375
q	-9.99408
▁lived	-9.99411
ka	-9.99419
▁paying	-9.99461
▁Boston	-9.99491
▁Team	-9.99505
▁applications	-9.99581
▁ultimately	-9.99614
▁north	-9.99624
▁closer	-9.99673
▁strength	-9.9969
▁defensive	-9.9971
▁developing	-9.99719
▁expensive	-9.99744
▁apparently	-9.99769
▁seeking	-9.99774
▁labor	-9.99858
▁changing	-9.99945
▁apply	-9.99968
▁Australian	-10.0001
▁multi	-10.0007
▁Middle	-10.0009
▁eat	-10.0012
▁tend	-10.0013
▁Before	-10.0017
▁experts	-10.0021
▁units	-10.0022
▁feels	-10.0034
▁UN	-10.004
▁limit	-10.0044
▁hate	-10.0049
▁covered	-10.0049
▁healthy	-10.0055
▁owners	-10.0057
▁losing	-10.0061
ine	-10.0069
▁alleged	-10.0072
▁Francisco	-10.0078
▁scientific	-10.0079
▁soldiers	-10.0084
▁Back	-10.0088
▁error	-10.009
▁regarding	-10.0094
▁Virginia	-10.0096
▁beautiful	-10.01
▁Carolina	-10.01
!""	-10.01
▁possibility	-10.0101
▁absolutely	-10.0105
▁capacity	-10.0115
}	-10.0117
▁surprise	-10.0123
▁sitting	-10.0125
▁en	-10.0131
▁tests	-10.0131
▁Still	-10.0133
▁none	-10.0135
▁internal	-10.014
▁protest	-10.0145
▁server	-10.0152
▁famous	-10.0157
▁unless	-10.0159
▁accounts	-10.0159
▁familiar	-10.017
▁turns	-10.0176
▁rich	-10.0176
▁authority	-10.0188
▁Williams	-10.0192
▁g	-10.0192
So	-10.0207
▁enter	-10.0221
▁USA	-10.0226
▁Up	-10.0231
▁survey	-10.0238
▁solar	-10.0238
▁Federal	-10.0257
.”"	-10.0262
▁fired	-10.0271
▁intended	-10.0273
▁homes	-10.0279
▁sounds	-10.0284
▁baby	-10.029
▁estimated	-10.0294
▁arms	-10.0304
▁touch	-10.0307
▁planet	-10.031
▁Paris	-10.0311
▁park	-10.0318
▁prove	-10.0321
▁fund	-10.0329
▁era	-10.0333
▁sleep	-10.0336
▁PC	-10.0339
▁offering	-10.035
▁prime	-10.0351
▁responsibility	-10.0351
▁pull	-10.0375
▁occurred	-10.0376
▁presented	-10.0385
▁sector	-10.0385
▁markets	-10.0393
ize	-10.0394
▁determine	-10.0397
▁respond	-10.0399
▁university	-10.04
$	-10.0408
▁mention	-10.0414
▁80	-10.0416
▁Good	-10.0416
▁starts	-10.0421
▁proposal	-10.0423
▁union	-10.0428
▁strike	-10.0429
▁broken	-10.0429
▁wind	-10.0451
▁rare	-10.0454
▁Each	-10.0461
▁shape	-10.0463
▁purchase	-10.0464
ier	-10.0466
▁specifically	-10.0475
▁Images	-10.0477
▁located	-10.0481
▁2.	-10.0488
▁votes	-10.0489
▁https	-10.0492
▁Open	-10.0511
▁conducted	-10.0524
▁b	-10.0525
▁Force	-10.0526
▁Jan	-10.053
▁infrastructure	-10.0545
▁vision	-10.0549
▁Dan	-10.055
▁engine	-10.0563
▁discuss	-10.0563
▁bringing	-10.0573
▁revenue	-10.058
ant	-10.0584
▁Only	-10.059
▁solid	-10.0596
▁maintain	-10.0604
▁elected	-10.0607
izing	-10.0611
▁Follow	-10.0627
▁Mac	-10.0639
▁carbon	-10.0643
ive	-10.0647
▁Are	-10.0648
▁potentially	-10.0648
▁equipment	-10.0651
▁sale	-10.0652
▁voting	-10.0659
▁sides	-10.0659
▁selling	-10.0666
▁200	-10.0674
\	-10.0675
▁vehicles	-10.0678
▁voted	-10.068
▁remove	-10.0683
▁shift	-10.0687
▁Director	-10.0694
▁29	-10.0701
▁Matt	-10.0707
▁plenty	-10.0707
▁rock	-10.0716
▁yards	-10.0718
▁refused	-10.0731
▁package	-10.0733
▁regime	-10.0738
▁equal	-10.0743
▁originally	-10.0743
▁remained	-10.0756
▁expressed	-10.0757
▁faster	-10.0757
side	-10.0758
▁pointed	-10.0762
▁guess	-10.0768
▁spring	-10.077
▁document	-10.0773
▁privacy	-10.0774
▁Law	-10.0777
▁elections	-10.0779
▁cold	-10.0781
▁Though	-10.0783
▁streets	-10.0785
▁bought	-10.0795
field	-10.0796
▁appearance	-10.0799
My	-10.08
ri	-10.0819
▁greatest	-10.082
▁broke	-10.0822
▁Watch	-10.0839
that	-10.0846
▁wearing	-10.0852
▁smart	-10.0866
▁seek	-10.0866
▁herself	-10.0868
▁Meanwhile	-10.0879
▁methods	-10.0885
▁weren	-10.0885
▁minimum	-10.0888
▁Mar	-10.0888
▁troops	-10.0893
▁affected	-10.0895
▁handle	-10.0896
▁evening	-10.0898
▁pieces	-10.09
▁south	-10.0904
se	-10.0909
ists	-10.0912
▁cultural	-10.0912
▁correct	-10.0922
▁factors	-10.0923
о	-10.0926
▁count	-10.0928
▁afternoon	-10.0931
▁prepared	-10.0935
▁BBC	-10.0951
▁suspect	-10.0951
▁grew	-10.0952
▁mode	-10.0956
free	-10.0961
▁humans	-10.0962
▁plus	-10.0968
▁pair	-10.0973
▁minute	-10.0975
()	-10.0988
▁represent	-10.0989
ate	-10.099
▁Life	-10.0994
▁seconds	-10.0996
▁hurt	-10.1004
▁finish	-10.101
▁Road	-10.1013
▁recorded	-10.1014
▁Sea	-10.102
et	-10.1021
▁challenges	-10.1027
way	-10.1028
ke	-10.1031
▁throw	-10.1033
▁aid	-10.1034
▁obviously	-10.1041
▁facing	-10.1045
▁Show	-10.1049
▁factor	-10.1052
▁Science	-10.1056
▁achieve	-10.1064
▁90	-10.1074
▁considering	-10.1082
▁politicians	-10.1084
▁stars	-10.1084
▁Daily	-10.1087
▁secure	-10.109
net	-10.1099
▁determined	-10.1103
▁Best	-10.1115
▁zone	-10.1116
▁Maybe	-10.1119
ary	-10.1126
▁Project	-10.1126
▁crew	-10.1126
io	-10.1127
▁Labour	-10.1139
▁except	-10.1143
▁excited	-10.1145
li	-10.1146
▁opportunities	-10.1166
▁fresh	-10.1171
▁widely	-10.1177
▁expansion	-10.1182
▁trouble	-10.1184
▁About	-10.1187
▁panel	-10.1188
▁forms	-10.1192
▁bus	-10.1194
▁distance	-10.1202
▁Every	-10.1203
▁pulled	-10.1223
▁emergency	-10.1223
▁remaining	-10.123
▁supporting	-10.1233
▁River	-10.125
▁identify	-10.1253
▁appeal	-10.1254
▁argued	-10.1255
▁consumers	-10.1259
е	-10.1268
▁70	-10.1279
▁combined	-10.1284
▁struggle	-10.1286
▁Turkey	-10.1289
▁indeed	-10.129
▁council	-10.1291
ful	-10.1292
▁agent	-10.1299
▁reduced	-10.1301
▁catch	-10.1304
▁completed	-10.1306
▁combat	-10.1315
▁corner	-10.1315
▁experienced	-10.1317
▁typically	-10.1321
lin	-10.1326
▁treated	-10.1326
▁Christmas	-10.1331
▁aircraft	-10.1331
▁significantly	-10.1336
▁seat	-10.1342
▁Jim	-10.1351
▁basically	-10.136
▁opposed	-10.1365
▁talked	-10.1378
ey	-10.139
▁extreme	-10.1424
▁Michigan	-10.1425
over	-10.1428
▁positions	-10.1437
▁con	-10.1439
▁Con	-10.1439
▁caption	-10.1449
▁passing	-10.145
▁31	-10.1451
down	-10.1466
ci	-10.1488
▁reference	-10.1489
▁fish	-10.1491
▁Right	-10.1495
▁dream	-10.15
▁seriously	-10.1502
▁35	-10.1503
▁mark	-10.1508
▁tree	-10.1512
а	-10.1512
▁tour	-10.1515
▁affect	-10.1518
mm	-10.1521
▁Ms	-10.1529
▁approved	-10.1536
▁signs	-10.154
▁arm	-10.1542
▁denied	-10.1544
▁lawyer	-10.155
▁bodies	-10.1556
ted	-10.1563
▁arrest	-10.1565
▁Bar	-10.1565
▁Blue	-10.1568
▁default	-10.1571
▁turning	-10.1573
▁responded	-10.158
▁2015,	-10.1589
▁favor	-10.161
▁appropriate	-10.1613
▁vast	-10.1624
▁William	-10.1625
▁apps	-10.163
▁perspective	-10.1634
▁films	-10.1636
▁Ireland	-10.1638
ul	-10.1639
▁conduct	-10.1644
▁perform	-10.1646
▁Romney	-10.1648
▁novel	-10.1649
▁yes	-10.1652
▁unable	-10.1654
▁suffered	-10.1654
▁Chief	-10.1656
▁newspaper	-10.1657
▁editor	-10.1657
▁reporters	-10.166
▁32	-10.1661
▁plants	-10.1661
▁Andrew	-10.1667
im	-10.1671
▁1990	-10.1674
▁governor	-10.1677
▁numerous	-10.1686
▁tech	-10.1686
▁declared	-10.1697
▁Ohio	-10.17
ko	-10.1704
▁Long	-10.1709
▁Sam	-10.1709
▁weapon	-10.1719
▁centre	-10.1721
▁technical	-10.1723
-1	-10.1725
▁confidence	-10.1734
▁//	-10.1734
▁1980	-10.1734
▁CNN	-10.1739
called	-10.1743
▁shouldn	-10.1747
▁Mo	-10.175
▁Power	-10.1752
▁enemy	-10.1758
▁reporting	-10.1758
é	-10.177
mo	-10.1771
▁Island	-10.1776
▁Second	-10.1778
right	-10.1782
▁giant	-10.1789
▁advice	-10.1789
▁ongoing	-10.179
▁reportedly	-10.1794
▁Take	-10.1798
▁transfer	-10.1798
▁foot	-10.1802
▁injured	-10.1802
▁hopes	-10.1807
▁terrorist	-10.181
▁leads	-10.1815
▁talent	-10.1817
▁shut	-10.1832
▁institutions	-10.1836
▁Note	-10.1846
▁ordered	-10.1846
▁copy	-10.1847
▁Jackson	-10.185
▁replace	-10.1851
▁capable	-10.1853
."""	-10.1857
▁cap	-10.1866
▁Pakistan	-10.1869
▁connected	-10.1869
▁route	-10.1871
▁2014,	-10.1873
▁weather	-10.1876
▁Web	-10.1879
10	-10.1885
▁publicly	-10.1886
▁Seattle	-10.1894
wing	-10.1901
▁violent	-10.1906
▁loved	-10.1912
▁pages	-10.1923
▁PM	-10.1925
▁magazine	-10.1932
▁ourselves	-10.1935
▁argue	-10.195
▁jail	-10.1951
▁bike	-10.1954
▁moral	-10.1956
▁Home	-10.1966
▁3.	-10.197
▁seasons	-10.1973
▁worry	-10.1974
▁guard	-10.198
▁married	-10.1981
▁Rep	-10.1981
▁armed	-10.1987
▁declined	-10.1993
▁delivered	-10.1995
▁helps	-10.1995
my	-10.1999
▁crimes	-10.2
▁exercise	-10.2013
▁2007	-10.2017
▁writes	-10.2019
▁length	-10.2022
▁realize	-10.2028
▁Social	-10.203
▁Lake	-10.2032
▁criticism	-10.204
▁edge	-10.204
▁attempts	-10.2054
▁effectively	-10.2066
▁walking	-10.2069
▁session	-10.207
▁picked	-10.2077
▁Year	-10.2077
▁listen	-10.2088
To	-10.2088
▁filled	-10.209
▁wonder	-10.2094
▁differences	-10.2096
▁Tim	-10.2097
20	-10.2103
▁fix	-10.2108
▁Journal	-10.2111
▁artist	-10.2115
▁missed	-10.2123
▁500	-10.2124
▁split	-10.2124
▁movies	-10.2127
▁announcement	-10.2135
▁2000	-10.2136
▁stands	-10.2137
▁Sign	-10.2148
▁secretary	-10.2151
▁Top	-10.2157
▁Afghanistan	-10.2164
▁lawsuit	-10.2169
▁Barack	-10.2178
▁updates	-10.2185
▁creation	-10.2195
▁copyright	-10.2196
▁desire	-10.2199
ni	-10.22
ise	-10.221
▁practices	-10.2211
em	-10.2212
▁Davis	-10.2215
▁reaction	-10.2217
▁matters	-10.2222
▁initially	-10.2227
▁liberal	-10.2229
pm	-10.223
▁allegations	-10.2238
▁creative	-10.2239
▁storage	-10.224
▁pattern	-10.2254
▁plane	-10.2256
▁relations	-10.2258
▁native	-10.2267
▁detail	-10.2271
den	-10.2272
▁deliver	-10.2275
game	-10.2276
▁Saudi	-10.228
▁Muslims	-10.228
▁linked	-10.2288
▁Next	-10.2296
▁explains	-10.2302
see	-10.2304
ance	-10.231
▁iPhone	-10.2318
ler	-10.2325
▁activists	-10.2327
▁Korean	-10.2336
▁Where	-10.2338
▁resolution	-10.234
▁combination	-10.2345
▁restaurant	-10.2347
▁contains	-10.2348
▁messages	-10.2358
ge	-10.2363
▁Board	-10.2363
▁currency	-10.2367
▁Jack	-10.2375
▁emails	-10.2377
class	-10.2378
▁2013,	-10.238
▁Human	-10.2395
▁videos	-10.2401
▁Three	-10.2405
▁island	-10.2406
▁Grand	-10.2408
level	-10.2414
▁agents	-10.2416
▁findings	-10.243
▁flow	-10.2432
di	-10.2434
▁faced	-10.2438
▁essentially	-10.2441
▁Space	-10.2444
▁nearby	-10.2445
▁suit	-10.245
▁accepted	-10.2453
▁contrast	-10.2456
▁warned	-10.2463
▁investors	-10.2467
▁Ukraine	-10.2468
▁injuries	-10.2473
▁distribution	-10.2479
▁sun	-10.2482
▁library	-10.2491
▁everybody	-10.2497
▁Bob	-10.2501
▁yesterday	-10.2504
▁metal	-10.251
▁neither	-10.2511
▁fill	-10.2511
▁roughly	-10.2511
▁temperature	-10.2512
▁necessarily	-10.2522
▁ride	-10.2523
▁warning	-10.2528
▁buildings	-10.2533
▁guilty	-10.2533
with	-10.2537
▁pictures	-10.2562
▁Perhaps	-10.2567
▁Rock	-10.257
▁transition	-10.2573
▁forget	-10.2573
mer	-10.2574
ce	-10.2577
▁shall	-10.258
▁scheduled	-10.258
▁applied	-10.2582
▁signing	-10.2587
▁performed	-10.2588
▁sought	-10.2593
▁listed	-10.2599
▁earth	-10.2602
▁ISIS	-10.2604
▁Asia	-10.2611
▁shop	-10.2614
▁Stephen	-10.2621
▁classic	-10.2622
▁stood	-10.2625
▁surprised	-10.2634
▁totally	-10.2642
▁mix	-10.2643
.[	-10.2643
▁rape	-10.2645
▁democracy	-10.2646
▁statements	-10.2647
▁objects	-10.2648
ous	-10.2669
▁Wilson	-10.2669
▁defend	-10.2669
▁offense	-10.2671
▁advanced	-10.2677
▁2012,	-10.268
▁client	-10.2681
▁classes	-10.2687
%	-10.269
▁consumer	-10.269
▁admitted	-10.2694
▁songs	-10.2695
▁represents	-10.2696
▁improved	-10.2697
▁rising	-10.2699
▁Women	-10.2701
▁vice	-10.2712
▁entered	-10.2716
▁agenda	-10.2722
▁sport	-10.2739
▁apart	-10.2739
▁hardware	-10.2739
▁patient	-10.274
sh	-10.2757
▁2,	-10.2767
▁leaves	-10.2768
▁existence	-10.2771
▁consequences	-10.2777
▁Art	-10.2787
▁discussed	-10.2794
▁colleagues	-10.2796
▁pushed	-10.2806
▁Club	-10.2807
▁faces	-10.2809
point	-10.281
▁promise	-10.2812
▁customer	-10.2813
▁unlikely	-10.2816
▁Colorado	-10.2822
▁NBA	-10.2822
long	-10.2823
▁begins	-10.2827
▁di	-10.2827
▁opposite	-10.2828
▁Thank	-10.2833
▁Lord	-10.2837
▁Kevin	-10.284
▁guns	-10.2845
▁$2	-10.2845
▁experiences	-10.2848
well	-10.285
▁campus	-10.2854
▁drivers	-10.2856
ak	-10.2857
▁YouTube	-10.2857
▁younger	-10.2864
▁journey	-10.2871
▁scored	-10.2871
▁suicide	-10.2872
▁heavily	-10.2879
▁allegedly	-10.2885
▁wake	-10.2887
▁advance	-10.2891
▁click	-10.2908
▁governments	-10.2909
▁Islam	-10.2909
▁Games	-10.2911
▁readers	-10.2911
▁receiving	-10.2915
▁chain	-10.2916
▁consistent	-10.2917
▁fairly	-10.2918
▁Putin	-10.2919
▁cycle	-10.2926
▁suffering	-10.2926
▁blame	-10.2931
▁powers	-10.2932
house	-10.2935
ya	-10.2937
▁hoping	-10.2937
▁Fire	-10.294
▁45	-10.2942
▁button	-10.2943
▁anywhere	-10.2945
▁causes	-10.2946
▁nations	-10.2946
▁meat	-10.2952
▁schedule	-10.2957
▁materials	-10.296
▁replaced	-10.2962
▁youth	-10.2963
▁Rights	-10.2966
▁Jeff	-10.2978
▁marketing	-10.2978
▁select	-10.2986
▁minor	-10.2988
▁Energy	-10.2991
▁facility	-10.2996
▁wave	-10.2998
▁grown	-10.2999
▁print	-10.3001
lo	-10.3003
Re	-10.3004
▁thoughts	-10.3004
▁buying	-10.3006
▁manner	-10.3008
▁motion	-10.3008
▁View	-10.3011
▁doctors	-10.3021
▁approval	-10.3026
▁proper	-10.3028
▁Share	-10.3032
▁Young	-10.3039
▁essential	-10.304
▁Sports	-10.3041
▁Soviet	-10.3048
▁follows	-10.3049
▁wear	-10.3053
▁welcome	-10.3054
▁winter	-10.3058
▁Defense	-10.306
▁relevant	-10.3067
▁DC	-10.3068
▁belief	-10.307
▁sharing	-10.3074
▁regulations	-10.3079
▁featured	-10.3081
sen	-10.3081
▁Cruz	-10.3083
▁universe	-10.3084
▁Jews	-10.3085
▁serving	-10.3088
▁fewer	-10.3088
▁neighborhood	-10.3089
▁Van	-10.3089
▁Charles	-10.3091
▁entry	-10.3094
▁expression	-10.3096
▁Miller	-10.3103
▁importance	-10.3132
▁wild	-10.3135
▁historical	-10.3146
▁adds	-10.3146
▁Kim	-10.315
▁jump	-10.3152
her	-10.3153
▁zero	-10.3157
▁Arizona	-10.3158
▁kid	-10.316
▁Houston	-10.3165
▁boys	-10.3166
▁threats	-10.317
▁somewhat	-10.3172
▁sentence	-10.3173
▁2018	-10.318
▁anyway	-10.3181
▁regional	-10.3182
▁studio	-10.3185
▁Love	-10.3188
▁trend	-10.3198
▁harder	-10.3199
▁stores	-10.32
▁tiny	-10.3204
▁decline	-10.3207
▁y	-10.3212
▁networks	-10.3213
▁ends	-10.3221
related	-10.3222
▁square	-10.3224
▁Story	-10.3229
▁lots	-10.3231
bo	-10.3232
▁partners	-10.3234
▁commitment	-10.3234
▁Ford	-10.3237
▁links	-10.3239
▁tournament	-10.3242
▁Palestinian	-10.3243
▁attempted	-10.3245
▁o	-10.3249
American	-10.3259
▁immediate	-10.3265
▁breaking	-10.3268
▁doctor	-10.327
▁waste	-10.3278
▁artists	-10.3278
▁describe	-10.3279
▁expert	-10.3281
▁opponent	-10.3281
▁surveillance	-10.3282
▁shots	-10.3284
▁controversial	-10.3286
▁defined	-10.3292
▁treat	-10.3294
▁mine	-10.3295
▁2006	-10.33
▁Valley	-10.3305
▁miss	-10.3308
▁frequently	-10.3311
▁harm	-10.3316
pe	-10.3322
▁Alex	-10.3328
▁acting	-10.3332
▁abortion	-10.3332
▁inspired	-10.3333
▁drink	-10.3334
▁Out	-10.3334
▁Part	-10.3345
▁closely	-10.3351
▁flat	-10.3353
▁protests	-10.3354
▁increases	-10.3354
▁sat	-10.3356
▁output	-10.3356
▁adults	-10.3358
▁Any	-10.3359
▁communication	-10.336
▁Inc	-10.3362
▁MP	-10.3363
▁excellent	-10.3368
▁functions	-10.3369
▁detailed	-10.3369
▁dedicated	-10.337
▁sister	-10.3371
▁selection	-10.3375
▁division	-10.3375
▁stick	-10.3379
▁Attorney	-10.338
▁chairman	-10.3382
▁terrorism	-10.3384
▁1970	-10.3387
▁examples	-10.3389
▁referred	-10.3389
ah	-10.3399
▁circumstances	-10.341
▁earned	-10.3412
AP	-10.3412
▁ancient	-10.3414
▁CIA	-10.3414
Photo	-10.3416
▁flag	-10.3416
▁Frank	-10.3428
ED	-10.3429
ek	-10.3429
▁causing	-10.3429
▁proud	-10.3431
▁fly	-10.3431
▁hotel	-10.3432
▁extent	-10.3433
▁alongside	-10.3442
ga	-10.3443
▁pushing	-10.3446
▁coffee	-10.3446
▁Eric	-10.3448
▁port	-10.3449
twitter	-10.345
▁carrying	-10.3453
▁formed	-10.3458
▁upcoming	-10.3459
ham	-10.3487
▁switch	-10.3487
▁guide	-10.3495
▁fat	-10.3495
▁debut	-10.3502
▁Society	-10.3502
▁updated	-10.3505
▁Republic	-10.351
▁$5	-10.351
▁surrounding	-10.3511
▁usual	-10.3512
▁brings	-10.3516
▁repeatedly	-10.3516
▁expand	-10.3525
▁r	-10.3529
▁emotional	-10.3529
▁competitive	-10.3545
▁northern	-10.3546
▁Check	-10.3548
▁Jesus	-10.3554
▁volume	-10.3555
▁dealing	-10.3558
▁targeted	-10.3562
▁wealth	-10.3562
▁Adam	-10.3564
▁alcohol	-10.3566
▁crazy	-10.3566
▁assets	-10.3574
▁franchise	-10.3577
▁2005	-10.358
au	-10.3585
▁holds	-10.3588
▁channel	-10.3592
▁Men	-10.3596
▁Brian	-10.3596
▁deeply	-10.3597
▁walked	-10.3602
▁adult	-10.3602
▁Detroit	-10.3606
ten	-10.3613
▁Finally	-10.3613
▁struck	-10.3619
▁brief	-10.3619
▁owned	-10.3621
▁literally	-10.3624
▁comfortable	-10.3624
▁download	-10.3624
▁moments	-10.3625
▁pop	-10.3634
▁acts	-10.3635
▁DNA	-10.3642
▁Catholic	-10.3643
▁articles	-10.3646
▁sets	-10.3647
▁fail	-10.3663
▁manage	-10.3663
▁Italy	-10.3665
▁Arab	-10.3672
▁Car	-10.3677
▁Daniel	-10.3677
▁frame	-10.3685
▁returns	-10.3685
▁glass	-10.3687
▁escape	-10.3692
▁coal	-10.3695
▁mainstream	-10.3695
▁Hollywood	-10.3708
uk	-10.371
▁stress	-10.3718
▁properties	-10.3727
▁wage	-10.373
▁Oh	-10.373
ised	-10.3735
▁hundred	-10.3742
▁requirements	-10.3748
▁contain	-10.3752
▁NASA	-10.3759
▁Thanks	-10.3762
▁destroyed	-10.3764
▁promised	-10.3764
▁teachers	-10.377
▁moves	-10.3772
▁Ka	-10.3775
▁Nick	-10.3778
▁targets	-10.3779
▁realized	-10.3788
▁4.	-10.3789
ba	-10.3794
▁relative	-10.3797
▁(1	-10.3798
▁watched	-10.3799
▁participants	-10.38
▁Jr	-10.38
▁crash	-10.3806
dy	-10.3807
▁terror	-10.3813
▁pool	-10.3822
name	-10.3829
▁industrial	-10.3831
She	-10.3833
▁license	-10.3834
▁lies	-10.3836
▁sending	-10.3838
▁constant	-10.384
▁emissions	-10.3848
amp	-10.3854
▁sample	-10.3855
▁Bo	-10.3856
▁protected	-10.3857
▁Play	-10.3862
▁Make	-10.3864
▁mayor	-10.3865
▁Mary	-10.3866
▁immigrants	-10.3867
▁phase	-10.3867
▁approximately	-10.3876
▁battery	-10.3881
▁Network	-10.3884
▁Irish	-10.3895
▁scheme	-10.3899
▁bitcoin	-10.3899
▁Italian	-10.3904
▁defeat	-10.3908
▁promote	-10.3914
▁shoot	-10.3916
ti	-10.3917
▁2016,	-10.393
▁versions	-10.3932
▁deaths	-10.3932
▁exciting	-10.3933
▁mistake	-10.3936
▁latter	-10.394
set	-10.3943
▁ending	-10.3943
▁Dec	-10.3956
▁eating	-10.3957
▁script	-10.3957
▁Among	-10.3957
▁;	-10.396
▁string	-10.3966
▁attend	-10.3967
▁teacher	-10.3968
▁authors	-10.3969
▁urban	-10.3969
▁matches	-10.3972
▁territory	-10.3979
▁bed	-10.3979
▁topic	-10.3982
▁impressive	-10.3985
▁slowly	-10.3989
▁noticed	-10.3989
▁knowing	-10.399
ana	-10.399
▁properly	-10.3991
▁Moore	-10.3994
▁Agency	-10.4002
▁gap	-10.4009
▁involving	-10.4024
▁roll	-10.4027
=""	-10.4031
▁Di	-10.4035
▁Live	-10.4036
▁aside	-10.404
▁extended	-10.4044
▁evil	-10.4048
▁bunch	-10.4053
▁experiment	-10.4054
▁alive	-10.4059
more	-10.406
▁Old	-10.4063
▁tested	-10.4064
▁exact	-10.4067
▁suddenly	-10.4068
▁worried	-10.4069
ov	-10.4069
▁fundamental	-10.407
▁Senator	-10.4071
▁Georgia	-10.4072
▁relationships	-10.4073
▁winner	-10.4074
▁virtual	-10.4075
▁recognize	-10.4075
▁facts	-10.4077
▁deck	-10.4079
▁assume	-10.4085
▁Miami	-10.4091
▁solve	-10.4098
▁fraud	-10.4105
▁Louis	-10.411
▁folks	-10.411
▁Click	-10.4112
▁facilities	-10.4113
ron	-10.4114
▁quarterback	-10.4118
▁village	-10.4124
▁fees	-10.4127
▁attacked	-10.4131
▁southern	-10.4133
▁resistance	-10.4133
▁merely	-10.4135
▁Unfortunately	-10.4138
ha	-10.4141
▁chose	-10.4142
▁micro	-10.4154
▁300	-10.4158
con	-10.4159
▁profit	-10.4159
▁skill	-10.4159
▁boost	-10.416
▁encourage	-10.4162
▁inter	-10.4176
▁fixed	-10.4179
▁pic	-10.4184
▁install	-10.4187
▁AP	-10.4189
▁Jersey	-10.4193
▁comparison	-10.4195
▁Pre	-10.4198
▁pitch	-10.4201
▁maximum	-10.4202
▁cutting	-10.4202
▁random	-10.4207
▁refugees	-10.4212
▁typical	-10.4222
▁occur	-10.4222
style	-10.4228
▁selected	-10.4238
▁fake	-10.4241
▁dis	-10.4241
▁unknown	-10.4243
▁locations	-10.4245
▁se	-10.4245
▁employee	-10.4246
▁opponents	-10.4246
▁Scotland	-10.4248
▁Judge	-10.4251
▁hell	-10.4255
▁database	-10.4262
▁element	-10.4262
Our	-10.4267
▁developer	-10.4268
▁directed	-10.4268
▁somehow	-10.4269
▁Nations	-10.4269
▁observed	-10.4269
bar	-10.4271
▁strongly	-10.4271
ating	-10.4274
▁coalition	-10.4278
▁Company	-10.4279
▁truck	-10.4282
▁roster	-10.4284
▁Spanish	-10.4295
wood	-10.4295
▁Such	-10.43
▁falling	-10.4305
▁broadcast	-10.431
ja	-10.4313
▁revolution	-10.4313
▁allies	-10.4314
▁format	-10.4315
der	-10.4318
▁Night	-10.4319
▁arguments	-10.4326
▁Bowl	-10.4327
▁obtained	-10.4328
pa	-10.433
▁requests	-10.4333
▁engage	-10.4339
▁rally	-10.4339
▁wins	-10.4341
▁tight	-10.4345
▁Special	-10.4346
▁grand	-10.4349
bit	-10.435
▁reveal	-10.435
po	-10.4352
▁ticket	-10.4356
ster	-10.436
▁protesters	-10.4363
▁poverty	-10.4363
▁signal	-10.4363
▁visual	-10.4368
▁definition	-10.4368
▁Per	-10.4369
▁critics	-10.4369
▁feed	-10.4372
▁risks	-10.4373
▁Which	-10.4375
▁fifth	-10.438
▁personally	-10.4382
▁understood	-10.4386
▁radical	-10.4391
que	-10.4399
▁NHL	-10.4402
▁afford	-10.4411
▁danger	-10.4413
▁ruled	-10.4421
▁item	-10.4427
▁proof	-10.4428
▁outcome	-10.4431
▁lie	-10.4435
▁Asian	-10.4436
▁communications	-10.4437
▁chemical	-10.444
▁strange	-10.4443
▁empty	-10.4443
▁profile	-10.4445
▁fashion	-10.4453
▁Dallas	-10.4455
▁2011,	-10.446
▁trans	-10.4468
ning	-10.4473
▁Tony	-10.4483
you	-10.4484
▁somewhere	-10.4487
▁payment	-10.4497
▁dollar	-10.4497
▁east	-10.45
▁pilot	-10.45
▁Real	-10.4507
▁award	-10.451
▁contributed	-10.4513
▁broad	-10.4515
▁province	-10.4518
▁extension	-10.4527
All	-10.4535
▁journalists	-10.4546
▁Ho	-10.4546
▁captured	-10.4547
▁technologies	-10.4547
▁Southern	-10.4552
▁Foreign	-10.4555
▁exposed	-10.4558
▁stronger	-10.456
▁atmosphere	-10.4566
▁gotten	-10.4573
▁posts	-10.4577
▁Indeed	-10.4579
▁trees	-10.4582
▁pace	-10.4583
▁trading	-10.4584
▁taste	-10.4588
ard	-10.4594
▁k	-10.4595
▁controlled	-10.4596
▁Egypt	-10.4603
▁Democrat	-10.4606
ol	-10.4617
▁actor	-10.4621
▁officially	-10.4625
ville	-10.4625
▁driven	-10.4626
▁category	-10.4627
▁claiming	-10.4627
▁aspects	-10.463
op	-10.463
▁cloud	-10.4633
▁dozen	-10.4634
ik	-10.4639
ger	-10.464
▁apartment	-10.4641
▁En	-10.4641
▁employment	-10.4644
▁Thus	-10.4644
▁Kelly	-10.4647
▁primarily	-10.4647
▁TO	-10.465
war	-10.4652
▁reasonable	-10.4653
car	-10.4655
▁Ar	-10.4657
On	-10.4658
▁regularly	-10.4658
▁plot	-10.4661
▁Business	-10.4663
▁System	-10.4666
▁NBC	-10.4666
▁mixed	-10.4667
▁estate	-10.4671
▁honest	-10.4673
▁limits	-10.4676
▁baseball	-10.4676
▁reputation	-10.4689
▁warm	-10.469
▁worldwide	-10.4691
▁Four	-10.4699
▁Minnesota	-10.4699
▁auto	-10.4702
#	-10.4702
don	-10.4711
▁dogs	-10.4711
▁founder	-10.4715
run	-10.4719
▁fighters	-10.4721
▁feedback	-10.4723
One	-10.4729
▁chosen	-10.473
▁generate	-10.473
▁threatened	-10.4734
▁kinds	-10.4736
▁constantly	-10.474
▁electricity	-10.4741
▁row	-10.4744
▁Global	-10.4745
▁purposes	-10.4751
▁input	-10.4751
▁drawn	-10.476
▁custom	-10.4763
▁reflect	-10.4766
ber	-10.4772
▁rejected	-10.4772
▁master	-10.4775
▁aggressive	-10.4778
▁narrative	-10.4782
▁parking	-10.479
▁somebody	-10.4792
▁polls	-10.48
▁incredibly	-10.4802
▁2015.	-10.4805
▁theme	-10.4806
▁spirit	-10.4808
▁connect	-10.4823
▁complaint	-10.4824
▁upper	-10.4829
▁2014.	-10.4833
▁capture	-10.4834
▁anymore	-10.4837
ac	-10.4838
▁Have	-10.4839
▁ties	-10.4839
▁bid	-10.4847
▁audio	-10.4848
ite	-10.4852
▁Source	-10.4855
▁mouth	-10.4856
▁Music	-10.486
▁heads	-10.4862
use	-10.4863
▁crucial	-10.4863
▁36	-10.4864
▁resulting	-10.4864
▁commission	-10.4864
▁Week	-10.4868
▁awesome	-10.4871
▁bomb	-10.4878
▁bag	-10.4883
▁Did	-10.4885
red	-10.4888
▁concluded	-10.4888
▁bear	-10.489
▁comic	-10.4893
▁enemies	-10.4894
▁plastic	-10.4896
head	-10.49
▁angry	-10.4909
▁weak	-10.491
▁elsewhere	-10.4911
▁reporter	-10.4911
▁incredible	-10.4916
light	-10.4931
!"	-10.4931
▁orders	-10.4934
▁storm	-10.4938
▁Jordan	-10.4949
▁components	-10.4951
▁Oct	-10.4952
▁returning	-10.4956
foot	-10.4958
▁solutions	-10.4961
▁valuable	-10.4962
▁payments	-10.4964
ney	-10.4968
▁Dark	-10.497
▁Email	-10.497
▁terrible	-10.4974
▁county	-10.4974
▁nobody	-10.4977
▁engaged	-10.4979
▁Data	-10.4982
▁academic	-10.4988
▁perfectly	-10.4991
▁Rose	-10.4991
▁electric	-10.4996
▁Video	-10.4996
▁dry	-10.4996
▁drinking	-10.5
▁raising	-10.5001
▁regions	-10.5001
▁continuing	-10.5001
▁registered	-10.5005
▁Nov	-10.5006
▁explanation	-10.5007
▁History	-10.5008
▁l	-10.5016
▁cheap	-10.5019
▁assistant	-10.502
▁Li	-10.5023
▁compete	-10.5026
▁accurate	-10.5027
▁kick	-10.5027
▁Gold	-10.5028
▁explore	-10.5029
are	-10.503
▁Spain	-10.5032
▁tradition	-10.5033
▁machines	-10.5037
▁Services	-10.5039
ray	-10.504
mail	-10.5041
▁Avenue	-10.5043
▁Ma	-10.5045
▁west	-10.5046
▁exists	-10.505
▁thank	-10.5055
sex	-10.5056
▁Wisconsin	-10.5062
▁Mc	-10.5073
▁seats	-10.5074
▁successfully	-10.5075
▁portion	-10.5075
▁conclusion	-10.5075
▁Taylor	-10.5079
min	-10.5082
▁magic	-10.5085
▁equivalent	-10.5086
▁operate	-10.509
▁Development	-10.5091
▁flying	-10.51
▁severe	-10.5108
▁racial	-10.5109
▁permanent	-10.512
▁establishment	-10.512
▁prefer	-10.5128
▁cable	-10.513
get	-10.5131
▁recovery	-10.5145
▁Following	-10.5149
▁aimed	-10.515
▁granted	-10.5152
▁ring	-10.5154
▁enable	-10.5155
▁Ed	-10.5157
▁penalty	-10.5157
▁elite	-10.5161
▁joint	-10.5168
▁recording	-10.517
▁2010,	-10.5171
How	-10.5171
▁Mayor	-10.5173
▁demands	-10.5185
▁automatically	-10.5191
▁newly	-10.5196
▁stuck	-10.5203
▁Greek	-10.5211
▁estimates	-10.5212
▁evolution	-10.5216
▁leg	-10.5224
▁Use	-10.5226
▁Ten	-10.5228
▁answers	-10.5231
▁Series	-10.5239
▁Philadelphia	-10.5241
▁lawmakers	-10.5241
▁adopted	-10.5244
▁installed	-10.5245
▁squad	-10.5247
▁veteran	-10.5248
▁2016.	-10.5254
▁Constitution	-10.5257
▁Wars	-10.5257
▁informed	-10.5258
▁taught	-10.5259
▁proved	-10.5264
▁assistance	-10.5265
▁Report	-10.5265
▁Pacific	-10.5266
▁represented	-10.5266
▁depth	-10.5269
▁Ko	-10.5269
ng	-10.5269
▁complicated	-10.5272
▁confident	-10.5273
▁deals	-10.5278
▁Northern	-10.5278
▁sick	-10.5286
▁organized	-10.5286
▁choices	-10.5291
▁earn	-10.5294
▁33	-10.5295
▁tied	-10.5301
▁writers	-10.5304
▁amounts	-10.5307
▁western	-10.5312
▁Nation	-10.5317
▁Manchester	-10.532
▁programming	-10.5326
▁Iowa	-10.5327
▁loan	-10.533
▁gaming	-10.5334
ji	-10.5336
▁soft	-10.534
▁collected	-10.5341
▁survive	-10.5342
▁dinner	-10.5344
▁regardless	-10.5346
▁McCain	-10.5358
▁teaching	-10.5358
▁accident	-10.5381
▁collapse	-10.5382
▁attended	-10.5383
▁boss	-10.5385
▁Price	-10.5386
▁Joseph	-10.5388
▁clients	-10.5394
month	-10.5396
▁meetings	-10.5401
▁consumption	-10.5406
fi	-10.5417
▁Policy	-10.5423
▁worker	-10.543
▁cited	-10.543
▁weird	-10.5431
▁surgery	-10.5433
▁Jason	-10.5435
▁champion	-10.5437
▁recommend	-10.5437
ina	-10.5438
▁enjoyed	-10.5438
▁Book	-10.5439
▁Henry	-10.5443
▁blocks	-10.5447
▁techniques	-10.5448
▁letters	-10.5453
▁aspect	-10.5454
▁houses	-10.5458
who	-10.546
▁afraid	-10.5462
▁possession	-10.5464
▁participate	-10.5465
▁Little	-10.5466
▁Eastern	-10.5477
▁degrees	-10.5488
▁Disney	-10.5488
▁Lu	-10.5495
▁exposure	-10.5497
▁funny	-10.5498
▁PS	-10.5508
▁hidden	-10.5511
▁visited	-10.5514
▁CO	-10.5517
gen	-10.552
▁farm	-10.5521
▁lawyers	-10.5528
▁implementation	-10.5533
At	-10.5533
▁downtown	-10.5541
▁chair	-10.5542
▁aim	-10.5543
▁vulnerable	-10.5548
▁parent	-10.5549
▁medium	-10.5549
new	-10.5558
▁Su	-10.5559
▁craft	-10.5559
▁corruption	-10.5562
▁disaster	-10.5565
▁stream	-10.557
▁situations	-10.5571
▁browser	-10.5573
ities	-10.5575
▁rating	-10.5575
▁emerged	-10.5589
▁hole	-10.5591
▁passes	-10.56
▁constitutional	-10.5601
▁mainly	-10.5604
▁cat	-10.5611
▁Sky	-10.5612
▁Baltimore	-10.562
▁defence	-10.562
▁scenario	-10.5621
hour	-10.5623
▁Professor	-10.563
▁Harry	-10.563
▁Royal	-10.563
▁finance	-10.5634
▁Gov	-10.5635
▁warming	-10.5636
▁prominent	-10.5636
▁2004	-10.5637
▁ideal	-10.564
ford	-10.5641
▁Ron	-10.5647
▁Civil	-10.565
▁Water	-10.5653
▁permission	-10.5655
▁negotiations	-10.5658
▁sanctions	-10.5664
▁hadn	-10.5666
▁fought	-10.5671
ium	-10.5672
▁49	-10.5675
▁Lo	-10.5676
▁unusual	-10.5678
▁Moscow	-10.5678
▁racist	-10.5682
▁shortly	-10.5686
▁OF	-10.5687
▁Linux	-10.5689
▁ill	-10.5691
▁duty	-10.5692
▁Alabama	-10.5693
▁load	-10.5694
▁depending	-10.5696
▁48	-10.5701
▁Zealand	-10.5708
▁Kingdom	-10.5709
▁Pi	-10.5713
▁sweet	-10.5716
ING	-10.5718
▁personnel	-10.572
▁rarely	-10.572
▁hits	-10.5729
▁engineering	-10.573
▁Amendment	-10.5731
lan	-10.5734
▁Land	-10.5737
▁apparent	-10.5739
▁minority	-10.574
▁pounds	-10.5746
era	-10.5758
▁surprising	-10.576
▁Conference	-10.5761
▁honor	-10.5764
▁drawing	-10.5767
▁advertising	-10.577
▁na	-10.5776
▁behalf	-10.5779
▁retail	-10.578
▁producer	-10.5784
▁formal	-10.5791
▁Premier	-10.5793
state	-10.5793
▁smoke	-10.5793
▁relief	-10.5796
▁nominee	-10.5798
ability	-10.5799
▁destroy	-10.58
▁Christ	-10.5809
▁thinks	-10.5809
▁Using	-10.5813
▁Without	-10.5819
▁busy	-10.5819
Image	-10.582
▁bridge	-10.5821
▁FC	-10.5829
▁generated	-10.583
▁chart	-10.583
▁principles	-10.5832
▁fields	-10.5836
▁coast	-10.5836
▁efficient	-10.5836
▁airport	-10.5837
▁chances	-10.5838
kin	-10.5842
▁visible	-10.5846
▁resulted	-10.5848
▁root	-10.5849
▁Sometimes	-10.585
▁sad	-10.5852
Do	-10.5855
▁losses	-10.5857
▁laid	-10.5861
▁lay	-10.5863
▁Brazil	-10.5866
▁expectations	-10.5869
▁Centre	-10.5871
▁Given	-10.5891
▁Was	-10.5892
▁processes	-10.5898
▁stable	-10.5899
▁Na	-10.5899
▁scenes	-10.5912
▁Se	-10.5913
▁everywhere	-10.5917
▁historic	-10.5917
▁exception	-10.5919
-3	-10.5929
▁describes	-10.5934
▁soil	-10.5935
▁Add	-10.5935
▁edition	-10.5937
▁snow	-10.5939
ns	-10.5939
▁interface	-10.594
▁Coast	-10.5941
▁rose	-10.5942
▁journalist	-10.5946
16	-10.5949
▁\	-10.5951
ny	-10.5955
tic	-10.5959
▁bills	-10.596
▁Reuters	-10.5962
▁Several	-10.5971
▁Education	-10.5976
▁Jon	-10.5995
▁thousand	-10.5999
▁gift	-10.6
▁Again	-10.6002
▁37	-10.6002
▁milk	-10.6005
▁saved	-10.6007
ated	-10.6009
▁5.	-10.6012
▁principle	-10.6018
▁sky	-10.602
▁Patrick	-10.6024
▁shares	-10.6027
▁Oregon	-10.6027
making	-10.6035
▁Turkish	-10.6039
▁basketball	-10.604
US	-10.6041
▁OK	-10.6043
▁34	-10.6045
▁Bernie	-10.6053
▁entering	-10.6055
▁Ken	-10.6057
▁shit	-10.6059
▁reduction	-10.606
▁Review	-10.6061
▁Navy	-10.6067
▁headed	-10.6068
▁Administration	-10.6073
▁failing	-10.6073
▁destruction	-10.6076
▁diet	-10.6076
▁Parliament	-10.6078
▁titles	-10.608
▁exclusive	-10.6084
▁38	-10.6088
▁ads	-10.609
▁Sa	-10.609
▁prospect	-10.6091
▁struggling	-10.6091
ang	-10.6102
▁Information	-10.6103
▁indicate	-10.6106
▁river	-10.6108
▁farmers	-10.6114
▁wine	-10.6116
▁footage	-10.6117
▁establish	-10.6119
▁rely	-10.6122
▁settlement	-10.6133
can	-10.6136
▁foundation	-10.614
▁OS	-10.6141
▁Allen	-10.6144
▁electronic	-10.6145
▁Related	-10.615
berg	-10.615
▁1960	-10.6151
▁gonna	-10.6154
▁cup	-10.616
▁Atlanta	-10.6161
▁gained	-10.6161
▁strikes	-10.6166
▁VR	-10.6167
▁priority	-10.6169
▁tackle	-10.6174
▁cameras	-10.6179
▁Community	-10.6181
▁blow	-10.6186
ze	-10.6187
▁Gen	-10.6189
▁wonderful	-10.619
▁regard	-10.6191
▁banned	-10.6196
▁Medical	-10.6197
▁investigate	-10.6201
▁Season	-10.6205
ung	-10.6211
▁stations	-10.6213
▁Bell	-10.6213
▁transport	-10.6217
64	-10.6218
▁dozens	-10.622
▁firms	-10.6228
▁founded	-10.623
▁sugar	-10.6234
dis	-10.6237
▁supports	-10.6242
ck	-10.6252
▁confirm	-10.6252
▁courts	-10.6254
▁mis	-10.6272
▁widespread	-10.6277
▁corporations	-10.6278
▁Diego	-10.6279
▁marked	-10.6281
▁patterns	-10.6282
▁Academy	-10.6283
les	-10.6284
▁UFC	-10.6291
ee	-10.6291
ping	-10.6296
▁reducing	-10.6301
▁Va	-10.6303
▁manufacturing	-10.6305
▁hero	-10.6307
▁hired	-10.6307
▁Far	-10.6308
▁Credit	-10.631
▁Roman	-10.6314
▁convicted	-10.632
▁Square	-10.6322
key	-10.6324
▁restrictions	-10.6325
ru	-10.6329
ball	-10.634
▁remote	-10.6342
▁$10	-10.6342
▁technique	-10.6349
▁containing	-10.6349
▁exit	-10.635
▁puts	-10.6355
▁AT	-10.6356
▁discrimination	-10.6359
<	-10.636
▁contracts	-10.636
▁van	-10.6361
▁Action	-10.6361
▁collect	-10.6362
▁Rick	-10.6365
▁2013.	-10.6376
▁w	-10.6379
▁hitting	-10.6379
▁representative	-10.6383
▁teach	-10.6385
▁tracks	-10.6389
▁Ni	-10.6395
▁Mars	-10.6395
▁recognized	-10.6397
▁implement	-10.6397
▁begun	-10.6398
▁1,000	-10.6399
tion	-10.64
▁Gaza	-10.6401
▁Pennsylvania	-10.6402
life	-10.6407
▁ABC	-10.6412
▁cannabis	-10.6412
▁scoring	-10.6417
▁express	-10.642
▁prepare	-10.6422
▁Austin	-10.6423
▁Kennedy	-10.6433
▁beliefs	-10.6436
▁Plus	-10.6437
ology	-10.644
▁Lewis	-10.6445
▁challenging	-10.6449
▁pot	-10.645
▁Division	-10.6452
:"	-10.6452
▁tank	-10.6453
▁component	-10.6455
▁clubs	-10.6457
▁feelings	-10.6462
▁deputy	-10.6463
▁convention	-10.6466
▁captain	-10.6466
▁ID	-10.647
ble	-10.6473
▁Aug	-10.6474
▁Whether	-10.6476
▁philosophy	-10.6488
▁drama	-10.6488
▁barely	-10.6498
▁tip	-10.6499
▁contest	-10.65
▁2001	-10.6502
▁Har	-10.6504
town	-10.651
▁forever	-10.6511
▁computers	-10.6511
▁IT	-10.6512
▁contribute	-10.6523
▁listening	-10.6526
this	-10.6529
▁external	-10.6533
▁producing	-10.6534
▁fee	-10.6534
▁quiet	-10.6536
▁height	-10.6545
▁Ha	-10.6547
▁bright	-10.6548
▁phones	-10.6549
▁suggesting	-10.655
▁Radio	-10.6551
▁normally	-10.6569
box	-10.657
▁Guardian	-10.657
known	-10.6575
▁progressive	-10.6583
▁friendly	-10.6583
▁transgender	-10.6584
let	-10.6586
▁extend	-10.6591
▁stretch	-10.6591
za	-10.6592
ex	-10.6595
▁intent	-10.6599
▁ocean	-10.6603
▁doors	-10.6604
▁tweet	-10.6606
▁www	-10.6606
▁anger	-10.6613
▁jury	-10.6614
▁replacement	-10.6614
▁contained	-10.6615
star	-10.6619
▁Full	-10.6621
▁Greece	-10.6622
▁unlike	-10.6622
▁Sept	-10.6623
Man	-10.6625
▁NSA	-10.6628
▁Hospital	-10.6629
Getty	-10.6633
▁commit	-10.6633
▁keeps	-10.6634
▁Head	-10.6638
▁achieved	-10.6647
▁notion	-10.6649
▁rapidly	-10.6656
▁3,	-10.6658
▁wing	-10.6661
▁fiction	-10.6664
ial	-10.6665
▁Championship	-10.6665
▁Walker	-10.6671
type	-10.6675
▁column	-10.6683
▁fiscal	-10.6685
▁pure	-10.6686
▁Te	-10.6688
11	-10.6688
▁Massachusetts	-10.6688
▁unclear	-10.6692
▁2009,	-10.6694
▁Kansas	-10.6695
▁Samsung	-10.6697
▁LA	-10.6702
▁42	-10.6709
board	-10.6709
▁equally	-10.671
▁branch	-10.671
▁tea	-10.671
▁welfare	-10.6713
▁plate	-10.6713
▁retired	-10.6715
mi	-10.6717
▁description	-10.6718
▁structures	-10.6721
▁hide	-10.6724
▁Am	-10.6724
▁delivery	-10.6726
▁Light	-10.6727
▁backed	-10.6735
▁Conservative	-10.6735
Star	-10.6737
py	-10.6738
▁sensitive	-10.6743
▁Du	-10.6743
▁2017.	-10.6744
▁practical	-10.6751
▁shock	-10.6753
▁Jay	-10.6755
▁label	-10.6756
▁controls	-10.6757
▁menu	-10.6762
▁dance	-10.6771
▁layer	-10.6772
▁indicated	-10.6775
▁dad	-10.6776
va	-10.6777
▁carefully	-10.6784
▁soul	-10.6786
▁Family	-10.6798
▁Ke	-10.6799
▁Having	-10.6801
▁rear	-10.6803
▁finds	-10.6804
New	-10.6806
▁pack	-10.6811
▁Later	-10.6813
▁CBS	-10.6815
▁150	-10.6817
▁IS	-10.6818
▁recognition	-10.6818
▁reaching	-10.682
▁initiative	-10.6822
▁Anthony	-10.6833
▁repeated	-10.684
▁handful	-10.684
▁peak	-10.6847
our	-10.6854
▁Does	-10.6854
▁anybody	-10.6855
▁Earlier	-10.6856
scale	-10.6861
▁sight	-10.6861
▁association	-10.6865
With	-10.6868
▁Bridge	-10.6869
▁holiday	-10.6869
▁Columbia	-10.687
▁invited	-10.6873
TV	-10.6876
▁MORE	-10.6881
▁liked	-10.6882
▁proven	-10.6883
▁Howard	-10.69
▁dynamic	-10.6904
50	-10.6907
▁parliament	-10.691
▁Justin	-10.6924
▁Anderson	-10.6926
pre	-10.6929
▁tickets	-10.6931
▁improvements	-10.6936
▁III	-10.6936
ship	-10.6937
▁km	-10.6947
▁Age	-10.6948
▁unemployment	-10.6949
▁bug	-10.695
▁collective	-10.6951
▁obtain	-10.6951
ho	-10.6951
▁visitors	-10.6953
▁framework	-10.6953
▁Cameron	-10.6958
▁convinced	-10.6958
▁Josh	-10.6958
▁processing	-10.6958
▁mom	-10.6959
▁Code	-10.6961
▁stone	-10.6964
list	-10.6967
▁upset	-10.6967
▁gear	-10.6969
▁array	-10.6971
▁admit	-10.6975
▁entertainment	-10.6984
▁que	-10.6984
▁Sony	-10.6989
▁independence	-10.699
▁regulation	-10.6991
Oh	-10.6992
including	-10.6993
▁Max	-10.6993
▁statistics	-10.6995
▁Ministry	-10.7
▁Governor	-10.7004
12	-10.7005
▁featuring	-10.7007
▁75	-10.7008
▁deeper	-10.7012
▁versus	-10.7013
▁index	-10.7014
▁intense	-10.7015
▁involvement	-10.7016
▁Stone	-10.7024
ut	-10.7025
▁rain	-10.7028
▁implemented	-10.703
▁ships	-10.7031
▁behaviour	-10.7031
▁ownership	-10.7033
▁publication	-10.7051
▁gang	-10.7059
▁2008,	-10.706
pro	-10.7064
▁Final	-10.7065
-2	-10.7065
▁2012.	-10.7067
▁End	-10.7079
world	-10.7082
▁fantasy	-10.7084
▁hardly	-10.7086
▁Golden	-10.7088
▁ignore	-10.709
istic	-10.71
▁referring	-10.71
▁Iraqi	-10.71
▁reader	-10.7102
han	-10.7103
▁intervention	-10.7103
page	-10.7103
▁Store	-10.7103
▁terrorists	-10.7106
law	-10.7109
▁grant	-10.7114
▁Death	-10.7121
▁Pat	-10.7121
▁joining	-10.7123
▁Ex	-10.7126
▁tweeted	-10.7131
▁connections	-10.7132
▁ad	-10.7139
▁AM	-10.7139
▁controversy	-10.7142
▁joke	-10.7143
▁Control	-10.7145
▁democratic	-10.7148
▁Ali	-10.7149
▁salary	-10.7152
▁suffer	-10.7157
▁eastern	-10.716
▁400	-10.7164
▁stadium	-10.7169
▁voter	-10.7171
▁movements	-10.7176
▁temporary	-10.7178
▁boat	-10.7182
bi	-10.7185
"")	-10.7186
▁App	-10.7186
▁heading	-10.7187
▁discovery	-10.7189
▁Ad	-10.7192
▁expanded	-10.7195
▁vital	-10.7197
▁innovation	-10.72
▁appreciate	-10.72
▁thrown	-10.7201
▁strategic	-10.7201
▁Rob	-10.7204
▁interviews	-10.7204
▁Freedom	-10.7205
▁NATO	-10.7207
▁salt	-10.7212
▁humanity	-10.7213
▁Iranian	-10.7214
▁define	-10.7215
▁Vancouver	-10.7217
▁rival	-10.7222
▁Queen	-10.7222
▁legitimate	-10.7227
▁civilians	-10.7228
▁horror	-10.7228
▁absence	-10.723
▁remarks	-10.723
▁semi	-10.7232
▁Illinois	-10.7234
▁Line	-10.7235
▁episodes	-10.724
▁respectively	-10.7241
▁raw	-10.7241
By	-10.7242
▁Test	-10.7243
▁gathered	-10.7243
▁purchased	-10.7248
▁da	-10.725
▁Museum	-10.7251
▁estimate	-10.7253
▁guest	-10.7255
▁Dead	-10.7257
▁Santa	-10.7258
▁improvement	-10.7263
▁ranked	-10.7264
▁steel	-10.7265
▁Kong	-10.7265
▁mining	-10.7269
▁walls	-10.7271
ent	-10.7274
▁creates	-10.7277
▁activist	-10.7277
▁Ross	-10.7286
▁import	-10.7289
▁musical	-10.7292
▁Chi	-10.7295
▁affairs	-10.7295
▁IN	-10.7304
▁extensive	-10.7309
▁iOS	-10.7313
▁missile	-10.7315
▁rural	-10.7316
▁attacking	-10.7321
▁Vegas	-10.7322
GB	-10.7323
▁ultimate	-10.7323
▁factory	-10.7328
▁$3	-10.7334
▁monitor	-10.7341
▁websites	-10.7344
▁odd	-10.7344
▁Mexican	-10.735
ani	-10.7352
▁investigating	-10.7352
▁scores	-10.7355
▁complaints	-10.7363
▁2003	-10.7364
▁paint	-10.737
▁Ruby	-10.7371
▁referendum	-10.738
▁dramatic	-10.738
▁careful	-10.7381
▁awareness	-10.7385
▁neck	-10.7385
▁trained	-10.7386
▁Food	-10.7389
▁legs	-10.7389
▁attached	-10.739
▁ESPN	-10.7391
ez	-10.7391
▁Beach	-10.7396
▁Arabia	-10.7399
▁suspected	-10.7401
▁coaches	-10.7404
▁noise	-10.7405
▁Xbox	-10.7407
▁attitude	-10.7407
▁Yeah	-10.7409
▁fantastic	-10.741
▁languages	-10.741
▁decent	-10.7412
▁suspended	-10.7415
▁Sir	-10.7417
▁recommended	-10.7417
▁witness	-10.742
▁sorry	-10.7421
▁resource	-10.7425
▁pursue	-10.743
▁Battle	-10.7434
▁Marvel	-10.7434
ab	-10.7434
▁Labor	-10.7436
▁console	-10.7437
▁Unlike	-10.7438
ped	-10.7457
▁handed	-10.7459
▁Major	-10.746
▁sharp	-10.7462
▁Program	-10.7462
▁investigators	-10.7465
▁petition	-10.7467
▁Stadium	-10.7471
{	-10.7473
▁scope	-10.7474
▁serves	-10.7475
▁Award	-10.7478
▁medicine	-10.7481
▁fallen	-10.7483
▁Hi	-10.7485
ence	-10.7491
▁sees	-10.7497
▁Liberal	-10.7498
born	-10.7501
▁providers	-10.7503
▁attempting	-10.7506
▁advocates	-10.7507
from	-10.7516
▁Christians	-10.7517
▁Cross	-10.7518
▁genetic	-10.7519
▁consistently	-10.7525
▁~	-10.7526
▁Fund	-10.7528
▁enormous	-10.753
▁Prince	-10.753
▁pan	-10.7532
▁logic	-10.7533
▁tomorrow	-10.7535
chi	-10.7536
▁actors	-10.7538
▁Jo	-10.7541
▁Maryland	-10.7542
▁API	-10.7544
▁stayed	-10.7544
▁addressed	-10.7548
▁Intelligence	-10.7549
▁closing	-10.7551
Con	-10.7553
low	-10.7563
▁roles	-10.7566
▁delay	-10.7567
▁seemingly	-10.7569
▁asks	-10.7574
▁ballot	-10.7577
▁Football	-10.7577
▁thread	-10.7577
▁discussions	-10.7578
▁Liverpool	-10.7584
▁profits	-10.7584
▁scandal	-10.7585
▁shoulder	-10.7587
17	-10.7592
▁Former	-10.7597
▁Dave	-10.7602
These	-10.7603
▁44	-10.7604
▁ratio	-10.7607
▁partnership	-10.7608
▁chapter	-10.761
▁Download	-10.7613
▁Ray	-10.7613
▁Cleveland	-10.7616
work	-10.762
▁substantial	-10.7626
▁Denver	-10.7627
▁drove	-10.7627
▁citizen	-10.7627
▁AND	-10.7629
▁39	-10.7634
Well	-10.7637
▁Hong	-10.7637
▁virtually	-10.7644
An	-10.7644
wa	-10.7653
▁transit	-10.7654
▁Tour	-10.7654
▁%	-10.7654
▁clothes	-10.7655
▁Magic	-10.7657
▁Harris	-10.7657
▁->	-10.7668
▁rookie	-10.7671
▁nomination	-10.7675
▁trillion	-10.7676
▁Fed	-10.7677
▁resident	-10.7677
▁Care	-10.7678
▁wages	-10.7682
▁domain	-10.7685
▁Look	-10.7685
▁lowest	-10.7691
▁4,	-10.7694
▁diversity	-10.7695
mar	-10.7695
tro	-10.7696
.[1]	-10.7703
▁clock	-10.7704
▁championship	-10.771
▁Figure	-10.771
▁improving	-10.7711
▁covering	-10.7712
▁Las	-10.7714
▁festival	-10.7717
▁symptoms	-10.7718
▁settings	-10.7726
▁conspiracy	-10.7727
hi	-10.773
▁depression	-10.7732
▁encouraged	-10.7737
▁protecting	-10.7739
▁depends	-10.7747
▁Below	-10.7749
▁Bible	-10.7751
▁Sweden	-10.7754
!)	-10.7757
▁Keep	-10.7757
▁handling	-10.7757
▁threw	-10.7758
▁drew	-10.7766
▁spokesperson	-10.7767
▁distributed	-10.7771
cha	-10.7772
▁rescue	-10.7772
▁viewed	-10.7772
▁Ted	-10.7778
▁tries	-10.778
▁Feb	-10.7785
▁Tech	-10.7788
▁Fort	-10.779
▁innocent	-10.7792
▁lucky	-10.7802
▁usage	-10.7804
▁Da	-10.7811
▁lights	-10.7818
▁bars	-10.7818
▁invest	-10.7818
Why	-10.7819
▁reviews	-10.7821
▁mountain	-10.7822
▁loans	-10.7822
▁membership	-10.7822
▁Galaxy	-10.7824
▁involves	-10.7825
ative	-10.7826
▁Port	-10.7828
▁contributions	-10.7829
lu	-10.7829
32	-10.7831
▁55	-10.7833
▁41	-10.7836
▁LGBT	-10.784
▁shopping	-10.7841
ow	-10.7843
▁throwing	-10.7852
jo	-10.7854
▁lying	-10.7856
port	-10.7862
▁headquarters	-10.7871
isation	-10.7871
▁comedy	-10.7872
▁programme	-10.7872
▁Beijing	-10.7877
▁valid	-10.7877
▁tasks	-10.7879
▁tone	-10.7889
▁Warren	-10.789
▁sequence	-10.7892
▁chat	-10.7892
▁abandoned	-10.7894
▁promises	-10.7898
▁h	-10.7904
air	-10.7905
▁thin	-10.7909
▁platforms	-10.7912
▁ignored	-10.7916
▁2019	-10.7925
▁commonly	-10.7926
▁passengers	-10.7928
▁Moon	-10.7933
ki	-10.7934
ven	-10.7934
▁Technology	-10.7937
▁Indiana	-10.7937
▁silver	-10.7944
▁samples	-10.7948
▁landscape	-10.795
▁insisted	-10.7951
▁efficiency	-10.7953
▁deficit	-10.7957
▁subsequent	-10.7958
season	-10.7961
▁spoken	-10.7965
▁Ne	-10.7966
▁upgrade	-10.7966
▁(“	-10.7968
▁transportation	-10.797
▁diverse	-10.7975
▁Dis	-10.7975
▁Anti	-10.7975
▁(2	-10.7977
▁divided	-10.7981
▁acknowledged	-10.7983
▁Batman	-10.7985
▁Call	-10.7992
▁wood	-10.7992
▁Oklahoma	-10.7993
▁yellow	-10.7997
▁criticized	-10.8
▁Latin	-10.8003
IT	-10.8004
▁Empire	-10.8005
▁Master	-10.8007
▁discover	-10.8009
▁subjects	-10.8014
▁grounds	-10.8016
De	-10.8019
▁Ontario	-10.802
▁log	-10.8021
▁universal	-10.8022
▁marks	-10.8024
▁conventional	-10.8027
▁Nintendo	-10.8028
▁beauty	-10.8029
▁stolen	-10.8032
▁arrive	-10.8033
▁forest	-10.8037
▁appointed	-10.8038
▁rapid	-10.8039
▁luck	-10.804
▁retirement	-10.8046
▁firing	-10.8057
▁Graham	-10.8061
vi	-10.8062
▁lab	-10.8067
▁conversations	-10.8068
▁funded	-10.8068
▁AI	-10.8069
▁helpful	-10.807
▁personality	-10.8073
▁covers	-10.8074
▁ranks	-10.8075
▁inflation	-10.8076
round	-10.8076
▁Intel	-10.8078
ano	-10.8078
▁gains	-10.808
▁65	-10.8082
news	-10.8082
▁Support	-10.8095
▁Reddit	-10.8102
made	-10.8109
mon	-10.8114
▁absolute	-10.8116
▁inner	-10.8116
▁racism	-10.8119
People	-10.8119
▁roads	-10.8119
▁legacy	-10.812
▁moon	-10.8132
play	-10.8138
▁Ku	-10.814
▁mistakes	-10.814
▁studied	-10.8144
▁locked	-10.8146
▁lock	-10.8147
▁replied	-10.8147
▁Wi	-10.8152
▁politically	-10.8159
▁tape	-10.8163
▁Rather	-10.8167
▁fears	-10.8168
▁Speaking	-10.8172
▁Harvard	-10.8173
▁violation	-10.8174
▁refer	-10.8178
▁copies	-10.8183
▁Associated	-10.8184
tz	-10.8186
▁introduction	-10.8186
minute	-10.8188
ig	-10.8191
▁acquired	-10.8192
▁Sydney	-10.8196
▁(19	-10.8198
▁intellectual	-10.8198
▁Edward	-10.82
▁Update	-10.8205
ins	-10.8206
▁Trade	-10.8208
▁Bruce	-10.8211
▁Ver	-10.8214
▁testimony	-10.8218
▁hockey	-10.822
▁predicted	-10.8221
▁Simon	-10.8222
▁bonus	-10.8225
▁tracking	-10.8226
▁monitoring	-10.8226
▁demonstrated	-10.8229
▁Berlin	-10.8229
▁universities	-10.823
▁papers	-10.8231
▁Portland	-10.8233
▁Alexander	-10.8234
▁literature	-10.8235
ft	-10.8235
hand	-10.8238
▁urged	-10.8239
▁senator	-10.8242
▁principal	-10.8246
▁ordinary	-10.8246
▁guarantee	-10.8248
▁naturally	-10.8248
▁Sarah	-10.8249
▁races	-10.825
▁Key	-10.8255
▁brothers	-10.8255
▁Five	-10.8258
▁Chelsea	-10.826
▁Children	-10.8265
▁incidents	-10.8267
▁Steven	-10.8268
▁Tri	-10.8268
▁opinions	-10.827
▁$4	-10.8272
▁supplies	-10.8275
▁Cook	-10.8276
▁saving	-10.8278
▁temperatures	-10.8279
▁protein	-10.8284
▁minds	-10.8286
▁concrete	-10.829
▁entitled	-10.8291
▁representing	-10.8298
▁Uber	-10.8303
▁drone	-10.8304
▁CA	-10.8307
ker	-10.831
▁Ja	-10.8311
▁wider	-10.8313
▁lists	-10.8313
▁comprehensive	-10.8321
▁visiting	-10.8326
▁viewers	-10.8327
▁survival	-10.8329
▁receiver	-10.8334
▁classified	-10.8334
▁trail	-10.8335
▁Vice	-10.8335
80	-10.8336
▁Atlantic	-10.8339
▁blocked	-10.834
▁landing	-10.8341
▁requested	-10.8343
‘	-10.8347
▁stupid	-10.8349
▁satellite	-10.8359
▁goods	-10.8362
▁robot	-10.8364
▁banking	-10.8367
▁healthcare	-10.8373
▁Utah	-10.8374
▁mechanism	-10.8382
▁spin	-10.8383
▁popularity	-10.8383
▁presidency	-10.8384
▁tips	-10.8385
▁hoped	-10.8385
▁capabilities	-10.8389
▁100%	-10.8391
▁documentary	-10.8392
▁Has	-10.8394
▁liquid	-10.8395
▁Jerusalem	-10.8398
▁quote	-10.84
▁reverse	-10.8403
▁dismissed	-10.8405
ver	-10.8405
▁architecture	-10.8405
▁letting	-10.8407
▁silence	-10.8408
▁monthly	-10.8413
▁Par	-10.842
▁mess	-10.8421
▁trigger	-10.8426
▁Carter	-10.8426
▁fruit	-10.8433
ada	-10.8435
ev	-10.8444
▁64	-10.8445
▁twenty	-10.8446
▁GM	-10.845
▁43	-10.845
▁torture	-10.8453
▁transactions	-10.8454
▁phrase	-10.8455
▁Jonathan	-10.8455
zi	-10.8457
▁assessment	-10.8464
▁proposals	-10.8469
▁Total	-10.847
▁rent	-10.8471
▁None	-10.8471
▁performing	-10.8472
▁equality	-10.8475
▁smooth	-10.8479
▁Jose	-10.8487
▁whenever	-10.8494
21	-10.8496
|	-10.8498
ER	-10.8499
▁spokeswoman	-10.8499
▁reliable	-10.85
▁u	-10.8505
▁encounter	-10.8508
▁fault	-10.851
▁smoking	-10.851
▁journal	-10.8513
▁register	-10.8516
▁scientist	-10.8517
▁iron	-10.8518
▁campaigns	-10.8519
▁Bureau	-10.8528
▁introduce	-10.8536
▁approached	-10.8541
▁deadline	-10.8542
▁colors	-10.8543
▁brown	-10.8545
▁bench	-10.8545
▁Article	-10.8547
▁Field	-10.8547
book	-10.8549
▁2002	-10.8553
▁grade	-10.8557
sch	-10.8558
ette	-10.856
ries	-10.8567
▁speaks	-10.8572
▁lineup	-10.8573
▁Set	-10.8579
▁congressional	-10.8582
▁abroad	-10.8587
▁tactics	-10.8593
▁origin	-10.8594
▁reward	-10.8595
mann	-10.8599
▁Doctor	-10.8604
top	-10.8604
▁Everyone	-10.8606
ski	-10.8607
▁recall	-10.8607
▁Obamacare	-10.8608
▁j	-10.8611
only	-10.8612
▁dress	-10.8616
water	-10.862
▁smile	-10.862
▁awarded	-10.8621
▁counts	-10.8624
▁narrow	-10.8626
▁targeting	-10.8627
▁anxiety	-10.8628
rich	-10.8634
▁Tor	-10.8634
▁info	-10.8638
▁mini	-10.8639
-10	-10.864
▁tie	-10.8643
▁prisoners	-10.8645
▁fighter	-10.8649
▁preparing	-10.8651
▁Much	-10.8652
▁appearances	-10.8657
▁Khan	-10.866
▁Phil	-10.8667
html	-10.8668
▁offices	-10.867
▁Gary	-10.8675
▁Area	-10.8677
▁Netflix	-10.8678
▁Olympic	-10.8678
eh	-10.8681
▁phenomenon	-10.8682
▁Sean	-10.8685
▁celebrate	-10.8686
▁intention	-10.8686
00	-10.8688
▁Early	-10.8689
▁Leader	-10.869
ura	-10.8691
rate	-10.8692
▁dialogue	-10.8697
▁rush	-10.8698
▁grid	-10.87
▁focusing	-10.8705
gar	-10.8711
▁Ball	-10.8716
▁deny	-10.8717
▁repeat	-10.8719
▁compare	-10.8723
▁chest	-10.8726
▁fossil	-10.8726
▁adventure	-10.8728
▁prosecutors	-10.8736
▁stages	-10.8737
len	-10.874
▁breaks	-10.8741
stone	-10.8741
▁harassment	-10.8748
▁$6	-10.875
▁Cor	-10.8752
log	-10.8756
▁employed	-10.876
▁wealthy	-10.8761
gate	-10.8763
▁titled	-10.8767
app	-10.8773
ran	-10.8775
▁king	-10.8775
▁kitchen	-10.8778
party	-10.8782
they	-10.8787
▁Local	-10.8788
king	-10.879
▁wheel	-10.8793
▁amid	-10.8793
▁consent	-10.8794
▁Oakland	-10.8798
post	-10.8798
▁Place	-10.8799
▁stance	-10.88
▁beating	-10.88
▁civilian	-10.8801
▁punishment	-10.8803
▁£	-10.8804
▁quoted	-10.8809
▁restaurants	-10.881
▁sufficient	-10.8811
▁stored	-10.8812
▁forcing	-10.8812
some	-10.8814
▁transaction	-10.8815
▁Change	-10.8817
▁rocket	-10.8818
▁maps	-10.8818
just	-10.8819
▁6.	-10.8819
▁le	-10.882
▁broader	-10.882
▁roof	-10.8823
▁forth	-10.8825
▁Scottish	-10.8826
▁blockchain	-10.8828
tor	-10.8829
▁Film	-10.8831
win	-10.8832
▁Brexit	-10.8834
ap	-10.8835
▁nose	-10.8838
▁8,	-10.884
▁pipeline	-10.8842
bn	-10.8843
▁surely	-10.8845
▁Instagram	-10.8847
▁actively	-10.8849
▁settled	-10.885
ring	-10.8851
▁judges	-10.8852
▁Anna	-10.8852
▁rough	-10.8857
▁plain	-10.8864
▁smartphone	-10.8864
▁childhood	-10.8869
▁abilities	-10.8871
ons	-10.8873
▁stability	-10.8877
▁Point	-10.8878
▁Further	-10.8878
▁Greg	-10.8879
▁consideration	-10.8881
▁overseas	-10.8884
▁burning	-10.8885
▁okay	-10.8885
▁bound	-10.8886
▁arguing	-10.8889
▁newsletter	-10.8889
▁rank	-10.889
▁circle	-10.8892
▁bio	-10.8893
▁questioned	-10.8893
100	-10.8894
▁differently	-10.8895
▁analyst	-10.8896
▁hall	-10.8897
▁Elizabeth	-10.89
▁wounded	-10.8901
Not	-10.8907
▁measured	-10.8911
)"	-10.8912
art	-10.8916
pi	-10.892
▁savings	-10.8921
▁breath	-10.8922
▁virus	-10.8922
▁Being	-10.8924
▁organic	-10.8931
▁passion	-10.8934
▁2017,	-10.8935
▁remarkable	-10.8942
▁posting	-10.8942
▁household	-10.8945
▁deserve	-10.8946
▁Executive	-10.8947
▁representatives	-10.8949
▁waves	-10.895
▁tonight	-10.8951
▁demonstrate	-10.8953
▁legislative	-10.8954
24	-10.896
▁Alan	-10.8962
there	-10.8963
▁Blake	-10.8964
▁submitted	-10.8966
▁Way	-10.8972
▁symbol	-10.8976
▁conservatives	-10.8978
▁Bad	-10.898
▁blind	-10.8981
▁demanding	-10.8984
▁Things	-10.8986
▁moderate	-10.8986
▁donations	-10.8987
▁maintained	-10.8991
▁embrace	-10.8994
▁Digital	-10.8995
▁objective	-10.8999
▁graduate	-10.8999
▁dispute	-10.8999
▁collaboration	-10.8999
▁frequency	-10.9005
▁comfort	-10.9007
▁weekly	-10.9008
▁Left	-10.9009
▁involve	-10.9009
▁reveals	-10.9011
▁Hamilton	-10.9013
▁affordable	-10.9013
▁consensus	-10.9015
▁deadly	-10.9022
▁cooperation	-10.9035
▁Therefore	-10.904
▁execution	-10.904
▁Market	-10.9041
▁god	-10.9043
▁tag	-10.9046
▁contribution	-10.9048
ification	-10.9048
▁anniversary	-10.9049
▁10-	-10.905
▁Bi	-10.9054
▁47	-10.9058
▁knee	-10.9059
▁Could	-10.906
▁el	-10.9063
▁industries	-10.9063
▁passage	-10.9064
▁stepped	-10.9064
▁meaningful	-10.9069
▁errors	-10.9073
▁2011.	-10.9079
▁striking	-10.9079
▁Station	-10.908
▁Wood	-10.9082
▁Vietnam	-10.9084
▁judgment	-10.9084
▁spiritual	-10.9084
▁7.	-10.9085
▁experiments	-10.9086
▁assist	-10.9089
▁Moreover	-10.9092
▁veterans	-10.9093
ph	-10.9094
▁1950	-10.9096
▁producers	-10.9096
▁patch	-10.9096
▁suspects	-10.9102
▁Morgan	-10.9103
▁Captain	-10.9106
vin	-10.9109
fer	-10.9113
▁custody	-10.9115
▁guidelines	-10.9116
ID	-10.9119
▁illness	-10.9121
vo	-10.9124
▁Jean	-10.913
▁Step	-10.9132
▁Tu	-10.9134
▁Del	-10.9136
▁physically	-10.9138
▁expanding	-10.9143
▁9/11	-10.9146
▁Order	-10.915
After	-10.9152
▁recipe	-10.9153
▁Fair	-10.9155
▁secondary	-10.916
▁falls	-10.916
▁5,	-10.9162
▁Palestinians	-10.9163
▁clothing	-10.9164
▁Cal	-10.9166
▁strategies	-10.917
ren	-10.9173
▁precisely	-10.9176
▁greatly	-10.9177
▁46	-10.9177
▁timing	-10.9179
▁ease	-10.9179
▁threatening	-10.9181
▁Mi	-10.9184
▁module	-10.9187
▁rail	-10.919
▁Harper	-10.919
ator	-10.9192
▁streaming	-10.9194
▁assumed	-10.9196
▁populations	-10.9198
▁lifetime	-10.9207
tra	-10.9207
▁participation	-10.9211
▁accessible	-10.9213
▁pointing	-10.9213
▁Java	-10.9218
▁fate	-10.9219
▁unions	-10.9219
AM	-10.922
▁noting	-10.922
▁Economic	-10.9221
▁Six	-10.9229
▁odds	-10.9232
ups	-10.9234
▁11,	-10.9236
▁bin	-10.9238
▁reads	-10.9244
▁promoting	-10.9244
▁eligible	-10.9245
▁Future	-10.9246
▁procedure	-10.9247
▁birds	-10.9249
▁Gulf	-10.9252
▁emerging	-10.9252
▁staying	-10.9259
▁promising	-10.9263
▁categories	-10.9264
▁Wales	-10.9265
▁importantly	-10.9266
▁Name	-10.9266
▁wanting	-10.9266
▁par	-10.9268
▁impression	-10.9269
▁soccer	-10.927
▁Tennessee	-10.9271
15	-10.9272
▁assigned	-10.9272
▁variable	-10.9273
▁Remember	-10.9273
▁Assad	-10.9274
▁formation	-10.9276
ably	-10.9279
▁checks	-10.928
▁servers	-10.9281
left	-10.9282
▁Kentucky	-10.9282
▁52	-10.9282
▁ceremony	-10.9286
▁Festival	-10.9289
▁Pentagon	-10.9289
▁reforms	-10.9291
▁openly	-10.9297
▁bond	-10.9297
▁inches	-10.9298
▁dying	-10.9301
yard	-10.9301
▁investigations	-10.9308
▁Libya	-10.931
2)	-10.931
▁propaganda	-10.931
▁Po	-10.9317
▁centers	-10.9317
IN	-10.9319
▁stake	-10.9324
▁Boy	-10.9325
▁instructions	-10.9328
▁Wild	-10.9337
ery	-10.9337
lock	-10.9339
▁overcome	-10.934
▁birthday	-10.9342
▁finger	-10.9343
▁channels	-10.9344
▁windows	-10.9344
▁succeed	-10.9346
▁implications	-10.9347
▁Murray	-10.9347
▁convince	-10.9349
▁margin	-10.9352
▁tens	-10.9353
▁competing	-10.9353
▁Management	-10.9353
▁frequent	-10.9356
▁tall	-10.936
▁resolve	-10.9362
▁defeated	-10.9363
▁ministry	-10.9364
▁iPad	-10.9364
▁Clark	-10.9365
▁generations	-10.9367
▁lift	-10.9368
▁therapy	-10.937
▁contacted	-10.9372
▁struggled	-10.9372
▁mail	-10.9374
▁6,	-10.9375
▁speaker	-10.9377
▁announce	-10.9378
-6	-10.9382
▁der	-10.9382
▁var	-10.9387
▁2007,	-10.9389
▁regulatory	-10.9389
▁logo	-10.9391
.[2]	-10.9393
▁horse	-10.9394
▁Plan	-10.9398
▁adviser	-10.9399
▁loud	-10.94
▁Access	-10.9401
▁difficulty	-10.9405
▁Thompson	-10.9406
▁Comey	-10.9406
▁managing	-10.941
▁bi	-10.941
▁Dutch	-10.9414
▁Continue	-10.9417
▁argues	-10.9419
▁calm	-10.9419
▁riding	-10.942
▁rhetoric	-10.942
▁hosted	-10.9429
▁damaged	-10.9435
ai	-10.9438
13	-10.944
▁7,	-10.9447
ara	-10.9447
▁capitalism	-10.945
▁#1	-10.9451
▁muscle	-10.9452
▁playoff	-10.9453
▁setup	-10.9458
▁dates	-10.9463
▁spots	-10.9464
▁graphics	-10.9464
▁dating	-10.9464
▁communicate	-10.9464
▁Work	-10.9465
ward	-10.9469
▁highlights	-10.9474
60	-10.9478
▁bottle	-10.9484
▁perceived	-10.9489
ff	-10.9489
▁invasion	-10.9491
ip	-10.9493
▁Affairs	-10.9502
▁signature	-10.9508
▁Model	-10.9508
▁memories	-10.9509
ane	-10.9511
▁registration	-10.9512
ell	-10.9512
▁explaining	-10.9516
▁rid	-10.9516
▁chicken	-10.9518
▁math	-10.9518
Now	-10.9519
▁voices	-10.9519
▁Third	-10.9521
▁Channel	-10.9522
▁grab	-10.9525
je	-10.9525
▁defending	-10.9527
▁Revolution	-10.9531
▁gathering	-10.9533
-5	-10.9538
▁discussing	-10.9538
▁playoffs	-10.9538
▁Additionally	-10.9544
▁ethnic	-10.9545
▁dominant	-10.9546
▁removal	-10.9546
▁Main	-10.9552
▁procedures	-10.9554
▁Others	-10.9555
▁engineer	-10.9558
▁51	-10.9562
▁Until	-10.9567
▁presentation	-10.9569
▁diplomatic	-10.9573
▁permit	-10.9573
non	-10.9574
▁$100	-10.9574
▁thick	-10.9575
▁searching	-10.9575
▁Si	-10.9575
▁Cooper	-10.9586
▁centuries	-10.9587
18	-10.959
▁sudden	-10.9593
▁wedding	-10.9596
▁whereas	-10.9599
▁cream	-10.9606
▁spectrum	-10.961
▁Dragon	-10.9612
▁Missouri	-10.9612
▁hang	-10.9613
▁followers	-10.9614
part	-10.9615
▁Auto	-10.9615
▁crack	-10.9616
90	-10.9617
▁legally	-10.9618
▁sum	-10.9618
▁requirement	-10.9619
▁tired	-10.9624
▁Abu	-10.9625
▁pocket	-10.9627
▁warrant	-10.9628
ino	-10.963
▁inspiration	-10.9631
▁prize	-10.9631
▁probe	-10.9633
▁racing	-10.9634
▁Mountain	-10.9634
▁Gordon	-10.9646
▁Down	-10.9646
�	-10.965
▁(3	-10.9651
inch	-10.9653
view	-10.9661
▁burden	-10.9661
▁executives	-10.9663
▁substance	-10.9664
▁Run	-10.9664
PA	-10.9664
▁pulling	-10.9664
▁Through	-10.9665
▁Ba	-10.9666
▁pet	-10.9668
▁lunch	-10.9668
▁coaching	-10.9669
▁Charlie	-10.9678
▁Nor	-10.9684
▁theories	-10.9686
▁Sure	-10.9686
▁requiring	-10.9691
▁burn	-10.9694
▁gather	-10.9695
▁routine	-10.9695
▁Sch	-10.9701
▁Furthermore	-10.9703
▁arrival	-10.9708
▁educational	-10.971
▁comics	-10.9711
▁Design	-10.9711
▁shirt	-10.9713
▁extraordinary	-10.9715
▁(5	-10.9722
▁Spring	-10.9723
▁Town	-10.9724
▁Ro	-10.9725
▁Mon	-10.9727
▁unprecedented	-10.9728
▁hat	-10.973
▁cabinet	-10.9731
▁sentenced	-10.9733
ure	-10.9733
▁Assembly	-10.9737
Reuters	-10.974
▁disorder	-10.974
▁Online	-10.9742
▁amendment	-10.9742
▁ratings	-10.9749
▁shipping	-10.976
▁Silver	-10.9761
ini	-10.9762
▁institution	-10.9764
30	-10.9765
che	-10.9767
▁Should	-10.9771
ising	-10.9771
▁NOT	-10.9775
▁HD	-10.9776
▁charity	-10.9777
ju	-10.9779
fa	-10.978
▁IP	-10.9782
▁Phoenix	-10.9783
▁Officer	-10.9783
▁underlying	-10.9784
▁responses	-10.9784
▁associate	-10.9785
▁distinct	-10.9791
ible	-10.9793
▁Sheriff	-10.9794
LA	-10.9797
▁studying	-10.9797
▁indicates	-10.9799
▁hopefully	-10.9799
▁hip	-10.9801
▁Ukrainian	-10.9812
Pro	-10.9814
40	-10.9815
▁Trans	-10.9821
▁Reagan	-10.9824
▁Aaron	-10.983
▁Pa	-10.9832
▁Nevada	-10.9834
▁citing	-10.9835
▁dust	-10.9835
even	-10.9838
▁eggs	-10.984
▁9,	-10.9841
▁3-	-10.9843
▁genre	-10.9848
▁aged	-10.9851
ris	-10.9852
▁drives	-10.9857
▁picking	-10.9859
was	-10.986
▁mere	-10.9864
▁Col	-10.9867
▁pleasure	-10.9868
▁loop	-10.9868
▁Reserve	-10.9869
▁bias	-10.9872
▁investments	-10.9874
▁Matthew	-10.9879
▁GDP	-10.9884
▁Contact	-10.9886
▁Metro	-10.9888
▁Arsenal	-10.9892
99	-10.9893
▁addresses	-10.9893
▁Cap	-10.9894
▁pollution	-10.9895
▁segment	-10.9896
▁organisation	-10.99
▁commander	-10.99
sky	-10.9903
▁favour	-10.9908
▁trick	-10.991
▁roots	-10.991
▁hire	-10.991
▁violations	-10.9913
Fi	-10.9915
▁Russell	-10.9915
▁Secret	-10.9916
▁Core	-10.9917
▁pride	-10.9918
▁spell	-10.9918
▁Trust	-10.992
▁mo	-10.9925
▁sheet	-10.9925
▁mood	-10.9927
▁cheese	-10.993
▁Carl	-10.9931
▁homeless	-10.9932
most	-10.9933
▁eliminate	-10.9933
▁Brooklyn	-10.9934
▁answered	-10.9934
-12	-10.9938
á	-10.9938
▁Ta	-10.9939
▁utility	-10.9943
▁Player	-10.9948
▁topics	-10.995
▁Yang	-10.995
▁interior	-10.9951
▁preferred	-10.9952
▁subscribe	-10.9957
▁Page	-10.9962
▁shell	-10.9962
▁designs	-10.9964
▁Ra	-10.9964
▁motor	-10.9966
white	-10.9966
▁desktop	-10.9968
▁rounds	-10.9968
▁lifestyle	-10.997
ky	-10.9975
▁outlets	-10.9988
▁clinical	-10.999
▁Mel	-10.9992
▁demanded	-10.9994
ius	-10.9995
▁Photos	-10.9996
▁Wright	-11
▁signals	-11.0001
▁recover	-11.0001
▁Ocean	-11.0002
▁Nazi	-11.0002
▁cheaper	-11.0005
▁borders	-11.0007
▁encouraging	-11.0007
▁rebels	-11.001
▁demo	-11.002
▁parallel	-11.0025
▁formula	-11.0027
▁loose	-11.0027
▁publishing	-11.003
ations	-11.0031
86	-11.0032
▁JavaScript	-11.0033
▁rolling	-11.0036
▁athletes	-11.0039
▁toxic	-11.0043
▁sorts	-11.0045
▁sixth	-11.0045
ou	-11.005
▁defender	-11.0052
▁swing	-11.0054
▁representation	-11.0055
▁lets	-11.0057
▁quit	-11.0059
▁adopt	-11.0059
▁dramatically	-11.0061
▁asset	-11.0063
bin	-11.0067
▁Getty	-11.0068
nt	-11.0073
▁shoes	-11.0076
▁19,	-11.0077
▁integration	-11.0078
▁advocate	-11.0079
▁MLS	-11.008
▁reserved	-11.0083
▁Vi	-11.0084
▁prompted	-11.0086
▁neighbors	-11.0091
▁Organization	-11.0092
ide	-11.0093
▁seized	-11.0093
▁oppose	-11.0093
▁anonymous	-11.0095
▁solo	-11.0098
▁Grant	-11.0098
▁Marine	-11.01
▁ridiculous	-11.0102
▁PA	-11.0103
▁10,000	-11.0104
▁CD	-11.0105
▁engineers	-11.0105
▁perception	-11.0105
citation	-11.011
▁everyday	-11.0111
▁entrance	-11.0111
▁designer	-11.0114
▁engagement	-11.0118
▁shadow	-11.0118
▁carries	-11.0123
tal	-11.0126
▁displayed	-11.0127
▁Nothing	-11.0129
▁trends	-11.0129
▁releases	-11.0129
hr	-11.0132
▁approaches	-11.0133
▁provision	-11.0136
▁Never	-11.0142
▁interaction	-11.0143
▁summit	-11.0146
▁manufacturers	-11.0147
▁departure	-11.0147
22	-11.0147
room	-11.0148
▁Giants	-11.0153
int	-11.0156
wide	-11.0158
▁Authority	-11.0159
▁PR	-11.016
▁desk	-11.0163
▁1999	-11.0163
▁Tesla	-11.0165
▁pregnant	-11.0165
▁Mad	-11.0168
form	-11.017
▁Francis	-11.0171
▁Link	-11.0172
▁Editor	-11.0173
▁occasionally	-11.0174
▁missions	-11.0178
▁compensation	-11.0182
▁soldier	-11.0184
▁Roy	-11.0185
▁Miss	-11.0186
▁depend	-11.0188
-4	-11.0191
very	-11.0191
▁hanging	-11.0192
▁laugh	-11.0195
▁badly	-11.0199
▁prospects	-11.02
▁chip	-11.0203
▁inquiry	-11.0206
▁suspension	-11.0208
▁Yu	-11.0209
▁deployed	-11.021
yn	-11.0211
▁picks	-11.0213
▁partly	-11.0213
▁Win	-11.0214
▁girlfriend	-11.022
▁attract	-11.0221
▁emotions	-11.0222
elect	-11.0223
▁psychological	-11.0225
▁attractive	-11.0228
▁shame	-11.0232
▁occurs	-11.0232
:00	-11.0234
200	-11.0234
▁brilliant	-11.0237
▁Capital	-11.0241
▁2.0	-11.0243
▁Inter	-11.0243
▁interviewed	-11.0248
▁hospitals	-11.0249
▁disappointed	-11.025
▁managers	-11.0251
ong	-11.0252
▁Everything	-11.0255
▁Think	-11.0257
var	-11.0258
mp	-11.0268
▁du	-11.0269
▁Hunter	-11.027
▁backing	-11.0274
▁Entertainment	-11.0274
IS	-11.0277
har	-11.0279
▁lesson	-11.0279
▁Duke	-11.028
eg	-11.028
▁gene	-11.028
size	-11.0282
▁contemporary	-11.0282
tin	-11.0289
ich	-11.03
▁tail	-11.0303
▁employers	-11.0303
▁Camp	-11.0304
▁Perry	-11.0304
▁Class	-11.0305
cy	-11.0309
▁List	-11.0318
bra	-11.0318
▁Medicine	-11.0318
▁submit	-11.0321
▁Montreal	-11.0322
▁Mass	-11.0323
▁speculation	-11.0326
▁talented	-11.0327
▁lessons	-11.033
▁maintenance	-11.0334
▁diseases	-11.0335
▁counsel	-11.0335
cat	-11.0338
▁relation	-11.034
▁correctly	-11.0342
▁Delhi	-11.0343
▁Christopher	-11.0344
▁ages	-11.0349
▁sections	-11.0354
▁def	-11.0355
▁23,	-11.0357
▁beach	-11.0358
▁boxes	-11.0361
▁Hot	-11.0366
∵	-11.0367
▁Buy	-11.0367
▁electoral	-11.0369
▁SP	-11.037
ita	-11.0372
▁(1)	-11.0373
▁landed	-11.0374
▁Level	-11.0375
Me	-11.0378
▁desert	-11.0382
▁recommendations	-11.0382
▁aims	-11.0383
▁Ban	-11.0385
▁Library	-11.0387
ud	-11.0387
screen	-11.0391
▁surrounded	-11.0391
▁bread	-11.0394
rin	-11.0394
wan	-11.04
▁provider	-11.0401
▁tons	-11.0401
▁repeal	-11.0402
▁Tower	-11.0403
▁tweets	-11.0405
OS	-11.0405
▁jumped	-11.0406
▁Orleans	-11.0407
▁mystery	-11.0407
▁joy	-11.0408
high	-11.0409
▁Ti	-11.0413
▁bowl	-11.0415
▁Andy	-11.0422
▁cyber	-11.0422
▁trials	-11.0424
▁pleased	-11.0427
cent	-11.0428
▁Would	-11.0428
▁Afghan	-11.0431
▁Adams	-11.0432
▁Pan	-11.0435
▁Edition	-11.0437
▁migrants	-11.0437
▁creatures	-11.0437
du	-11.0438
▁functional	-11.0439
master	-11.0439
▁concerning	-11.0439
“	-11.0439
▁restore	-11.0441
▁bird	-11.0441
1)	-11.0443
▁Alliance	-11.0448
ties	-11.0448
▁1)	-11.0454
▁Treasury	-11.0455
▁settle	-11.0455
▁museum	-11.0456
par	-11.0456
gan	-11.0461
▁Front	-11.0461
▁productive	-11.0462
▁rooms	-11.0466
▁interact	-11.0466
▁Jeremy	-11.0466
js	-11.0467
▁Pe	-11.047
▁wars	-11.047
▁knife	-11.0476
▁notable	-11.0477
income	-11.0483
▁witnesses	-11.0484
Don	-11.0492
▁consciousness	-11.0492
▁imposed	-11.0495
▁shocked	-11.0495
az	-11.05
▁momentum	-11.05
▁1.5	-11.0501
▁Orlando	-11.0501
▁Sha	-11.0502
▁Hard	-11.0503
▁labour	-11.0503
▁traveling	-11.0505
▁des	-11.0506
▁(4	-11.0508
▁flood	-11.0509
ett	-11.051
▁USB	-11.051
now	-11.0514
hu	-11.0516
▁Type	-11.0517
▁50%	-11.0518
yl	-11.0521
▁Manning	-11.0524
▁stating	-11.0525
▁strict	-11.0526
▁backup	-11.0526
▁crossing	-11.0528
▁Pittsburgh	-11.0529
▁explosion	-11.0529
DS	-11.0533
▁22,	-11.0534
▁Snowden	-11.0536
▁promotion	-11.0539
▁sustainable	-11.0543
owned	-11.0543
iv	-11.0543
▁junior	-11.0544
▁Edit	-11.0552
▁Han	-11.0554
▁heroes	-11.0555
▁Ham	-11.0555
▁colour	-11.0555
▁Ge	-11.0556
▁tap	-11.0557
▁guitar	-11.0559
▁bone	-11.056
tel	-11.056
▁27,	-11.0561
▁predict	-11.0564
▁inequality	-11.0565
▁compromise	-11.0567
▁ideology	-11.0569
ola	-11.0571
▁expense	-11.0573
test	-11.0573
ob	-11.0576
pin	-11.0576
▁refuse	-11.0581
▁confused	-11.0582
▁BC	-11.0583
▁Ottawa	-11.0584
▁Capitol	-11.0585
▁Gar	-11.0586
▁gameplay	-11.059
▁wondering	-11.0594
▁highlight	-11.0596
▁arts	-11.0599
▁15,	-11.06
▁favourite	-11.0605
▁telephone	-11.0606
▁teeth	-11.061
▁Protection	-11.061
▁sand	-11.0615
▁Za	-11.0615
▁Jerry	-11.0617
▁Building	-11.0618
▁Wa	-11.0619
▁Modi	-11.0621
▁maintaining	-11.0621
▁kicked	-11.0624
▁Date	-11.0629
▁recession	-11.0631
▁dependent	-11.0636
▁isolated	-11.0636
▁acid	-11.064
▁Standard	-11.0647
▁para	-11.0647
real	-11.0647
▁configuration	-11.0648
▁attending	-11.0648
Trump	-11.0652
▁Financial	-11.0653
▁Chairman	-11.0657
▁subsequently	-11.0657
▁EPA	-11.0658
▁Warner	-11.0658
▁meal	-11.0659
▁occasional	-11.0659
has	-11.0659
▁Card	-11.0666
▁preserve	-11.0666
lic	-11.0667
▁integrity	-11.067
▁Pen	-11.0671
▁instances	-11.0674
▁prosecutor	-11.0676
▁genuine	-11.0676
▁bombing	-11.0676
▁Taliban	-11.0677
▁10%	-11.068
▁analysts	-11.0681
▁existed	-11.0681
▁Wayne	-11.0684
▁Studies	-11.0685
▁HIV	-11.0685
▁Victoria	-11.0685
▁Robinson	-11.0688
▁clip	-11.0688
▁artificial	-11.0689
ix	-11.069
▁drag	-11.069
▁Corporation	-11.0691
▁Pope	-11.0694
gi	-11.0695
▁guests	-11.0696
▁=>	-11.0697
▁strip	-11.0699
▁Section	-11.07
▁Had	-11.0702
▁acceptable	-11.0703
▁underground	-11.0708
▁18,	-11.0709
Some	-11.0711
▁2010.	-11.0717
▁towns	-11.0722
▁superior	-11.0726
▁Climate	-11.0728
▁asylum	-11.0735
▁Find	-11.0736
▁describing	-11.0737
▁opposing	-11.0744
▁pen	-11.0744
▁cognitive	-11.0747
-8	-11.0749
MP	-11.0751
▁dreams	-11.0751
ria	-11.0752
▁modified	-11.0756
▁brutal	-11.0758
▁executed	-11.0759
▁engaging	-11.076
▁radiation	-11.076
ified	-11.0761
▁journalism	-11.0762
▁buried	-11.0762
SE	-11.077
▁opt	-11.0777
▁removing	-11.0778
▁Within	-11.0778
▁biological	-11.078
ari	-11.0782
▁dropping	-11.079
▁28,	-11.0792
▁Brad	-11.0795
▁Convention	-11.0796
ella	-11.0796
▁ingredients	-11.0798
▁exclusively	-11.0799
Yes	-11.08
qui	-11.0801
▁march	-11.0805
▁dominated	-11.0808
▁guaranteed	-11.0813
.[4]	-11.0813
▁detect	-11.0814
link	-11.0816
.[3]	-11.0816
▁volunteers	-11.0816
fire	-11.0817
▁Manhattan	-11.0818
▁packages	-11.082
▁Medicaid	-11.0821
▁concepts	-11.0822
iz	-11.0825
▁venture	-11.0825
▁recalled	-11.0826
val	-11.0827
person	-11.0834
▁17,	-11.0837
uri	-11.0838
▁physics	-11.0843
▁justify	-11.0847
▁Modern	-11.0848
value	-11.085
▁Lincoln	-11.0851
▁steady	-11.0855
▁desperate	-11.0858
▁Egyptian	-11.0859
▁hiring	-11.086
▁considerable	-11.0862
▁16,	-11.0862
70	-11.0863
CA	-11.0863
▁Antonio	-11.0864
▁nervous	-11.0865
▁spaces	-11.0868
ians	-11.0872
▁filter	-11.0874
▁detention	-11.0879
▁slot	-11.0879
14	-11.088
▁printed	-11.0884
▁adoption	-11.0884
▁angle	-11.0884
cer	-11.0885
▁trailer	-11.0886
▁fleet	-11.0888
aka	-11.0897
ware	-11.0901
▁patent	-11.0902
▁54	-11.0907
▁Rich	-11.0908
▁packed	-11.0909
▁concert	-11.091
▁stack	-11.0915
----------------	-11.0915
▁Stanford	-11.0915
▁Band	-11.0922
▁teammates	-11.0924
▁Yemen	-11.0926
▁monster	-11.0927
▁leaked	-11.0933
Let	-11.0936
▁1998	-11.0937
▁confusion	-11.0941
▁21,	-11.0941
▁orbit	-11.0943
While	-11.0949
▁Stewart	-11.0951
▁professionals	-11.0955
▁deemed	-11.0958
▁vocal	-11.0959
▁grass	-11.096
▁briefly	-11.0961
▁garden	-11.0963
action	-11.0963
▁occupied	-11.0965
▁bacteria	-11.0966
ot	-11.0967
▁killer	-11.0969
▁creature	-11.0969
▁researcher	-11.0971
▁peaceful	-11.0972
▁theater	-11.0972
▁refers	-11.0974
▁overwhelming	-11.0974
▁excuse	-11.0982
zo	-11.0982
▁seed	-11.0985
▁Roger	-11.0986
▁ear	-11.0988
▁25,	-11.0988
▁tremendous	-11.099
care	-11.0991
▁choosing	-11.0992
▁forum	-11.0998
▁ha	-11.1007
▁survived	-11.1007
▁chocolate	-11.1011
▁sessions	-11.1021
▁ambassador	-11.1022
dar	-11.1027
▁53	-11.1031
▁charging	-11.1035
▁26,	-11.104
▁z	-11.1041
▁Winter	-11.1042
si	-11.1042
friendly	-11.1043
▁curious	-11.1043
▁simultaneously	-11.1043
▁contrary	-11.1044
▁holes	-11.1048
▁enhance	-11.1049
▁Independent	-11.1052
▁periods	-11.1056
▁courtesy	-11.1058
▁belt	-11.1059
▁CPU	-11.1061
▁forgotten	-11.1061
▁Marc	-11.1062
sized	-11.1066
Go	-11.1068
▁evolved	-11.1069
▁Based	-11.1071
▁singer	-11.1072
such	-11.1074
▁repair	-11.1077
▁genes	-11.1078
▁sexually	-11.1079
▁sits	-11.1081
▁closest	-11.1084
▁politician	-11.1092
▁flash	-11.1093
▁mad	-11.1096
▁keyboard	-11.1101
▁expenses	-11.1101
▁mortgage	-11.1102
▁quest	-11.1103
▁lane	-11.1105
▁hunting	-11.1106
▁Louisiana	-11.1107
▁loaded	-11.1107
▁Manager	-11.1109
▁bulk	-11.111
▁nowhere	-11.1112
▁disagree	-11.1115
she	-11.1115
AC	-11.1116
▁mirror	-11.1118
5,000	-11.112
▁Dar	-11.1126
▁keys	-11.1129
▁donors	-11.1133
▁del	-11.1134
▁references	-11.1136
▁releasing	-11.1137
▁Subscribe	-11.1138
ea	-11.1139
▁taxpayers	-11.1142
▁UI	-11.1142
▁speakers	-11.1144
▁silent	-11.1147
▁passenger	-11.1149
▁Drive	-11.1151
▁concentration	-11.1153
profit	-11.1155
sk	-11.1156
▁Python	-11.1157
▁recovered	-11.1159
▁advertisement	-11.116
▁13,	-11.1162
▁praise	-11.1166
▁tear	-11.1166
▁Craig	-11.1166
▁editorial	-11.1167
million	-11.1167
▁robust	-11.1168
▁publish	-11.1169
▁NO	-11.1169
▁motivated	-11.1172
▁guards	-11.1172
▁revolutionary	-11.1173
▁Netanyahu	-11.1175
▁Euro	-11.1176
▁impose	-11.1181
▁Nature	-11.1182
▁Mail	-11.1185
ned	-11.1185
what	-11.1186
ile	-11.1187
▁refugee	-11.1188
▁regarded	-11.1189
▁disabled	-11.1194
good	-11.1197
▁integrated	-11.1198
▁burned	-11.1203
▁Cha	-11.121
▁True	-11.121
▁surprisingly	-11.121
will	-11.1215
98	-11.1215
PM	-11.1216
http	-11.1218
▁identical	-11.1218
▁interpretation	-11.1219
▁dual	-11.122
▁militants	-11.122
▁9.	-11.1222
▁Larry	-11.1222
▁flavor	-11.1223
self	-11.1225
af	-11.1229
▁challenged	-11.1234
▁billions	-11.1234
OR	-11.1241
▁Gi	-11.1244
▁unexpected	-11.1244
▁algorithm	-11.1245
▁Overall	-11.1245
▁acknowledge	-11.1246
▁120	-11.1249
▁Tea	-11.125
▁void	-11.1254
▁Ferguson	-11.1255
▁29,	-11.1259
01	-11.1259
▁Mrs	-11.126
▁alliance	-11.1261
▁blocking	-11.1261
▁engines	-11.1261
▁painting	-11.1262
▁Hitler	-11.1264
▁defended	-11.1267
▁animation	-11.1267
bb	-11.1267
▁PlayStation	-11.1269
▁consecutive	-11.1269
cher	-11.127
▁districts	-11.1273
▁dig	-11.1278
▁memo	-11.1281
▁Rome	-11.1281
▁occasion	-11.1284
▁bold	-11.1287
▁2)	-11.1288
▁fed	-11.1291
▁struggles	-11.1293
▁chaos	-11.1294
under	-11.1294
▁shelter	-11.1294
▁persons	-11.1294
▁8.	-11.1295
▁McDonald	-11.1296
▁Iron	-11.1298
▁Yo	-11.1299
▁Sub	-11.1301
▁prosecution	-11.1304
▁checking	-11.1308
rk	-11.131
▁qualified	-11.1311
▁Rubio	-11.1311
ku	-11.1313
▁pm	-11.1314
▁14,	-11.1314
nie	-11.1317
▁password	-11.1325
▁Peace	-11.1326
▁Rangers	-11.133
▁cry	-11.1332
▁tower	-11.1332
▁operator	-11.1332
aw	-11.1333
▁$7	-11.1333
▁Smart	-11.1338
▁2006,	-11.1339
tech	-11.1344
▁nationwide	-11.1346
shot	-11.1351
▁boom	-11.1356
▁hunt	-11.1357
▁assembly	-11.1358
La	-11.1361
▁influential	-11.1365
▁credits	-11.1366
▁Father	-11.1367
▁Ave	-11.1373
▁polling	-11.1373
▁Tax	-11.1377
▁Against	-11.1379
▁uniform	-11.1383
▁Medicare	-11.1387
▁Guard	-11.139
▁experimental	-11.1391
▁decrease	-11.1392
▁Native	-11.1394
▁functionality	-11.1395
▁alert	-11.1398
▁inevitable	-11.1405
▁export	-11.1408
▁Poland	-11.1409
▁Table	-11.1409
▁attracted	-11.1415
▁premium	-11.1417
▁destination	-11.1418
▁Cold	-11.1418
▁ranking	-11.1418
▁Box	-11.1419
▁Hell	-11.1421
▁battles	-11.1421
ST	-11.1424
▁$8	-11.1425
▁ca	-11.1429
cing	-11.1429
gy	-11.1431
▁figured	-11.1431
▁transparency	-11.1434
▁yeah	-11.1434
▁provisions	-11.1437
▁renewable	-11.1439
▁Oscar	-11.1439
▁crop	-11.1441
▁accepting	-11.1441
▁couples	-11.1444
MS	-11.145
▁rebel	-11.145
▁Trek	-11.1454
▁Side	-11.1456
▁Copyright	-11.1456
▁Mississippi	-11.1461
Al	-11.1465
lib	-11.1469
▁minimal	-11.147
▁24,	-11.147
range	-11.147
▁56	-11.1475
▁fled	-11.1477
bound	-11.1479
▁Pinterest	-11.1482
▁kit	-11.1483
ach	-11.1483
▁emphasis	-11.1485
▁1992	-11.1487
▁coup	-11.1492
▁SC	-11.1495
ick	-11.1497
▁Ren	-11.1498
▁explicitly	-11.1502
▁residence	-11.1502
▁graphic	-11.1504
▁Jimmy	-11.1506
▁blamed	-11.1508
▁expecting	-11.1511
▁glad	-11.1511
▁insight	-11.1512
▁orange	-11.1513
▁Ki	-11.1517
week	-11.1518
▁constitution	-11.1521
▁sin	-11.1529
Ra	-11.153
▁senators	-11.1534
▁mandate	-11.1535
▁tragedy	-11.1536
pt	-11.1536
▁households	-11.1541
▁conversion	-11.1548
▁Very	-11.1555
▁controller	-11.156
▁protocol	-11.156
▁Netherlands	-11.1563
▁outstanding	-11.1566
▁stem	-11.1567
▁automatic	-11.1568
▁handled	-11.1568
▁egg	-11.157
▁Ty	-11.1575
▁vary	-11.1581
▁butter	-11.1582
ok	-11.1584
▁op	-11.1591
▁Vol	-11.1591
ii	-11.1591
▁fails	-11.1591
▁robots	-11.1594
▁Environmental	-11.1594
▁Nelson	-11.1595
▁praised	-11.1596
▁(""	-11.1596
▁Flash	-11.1596
▁filing	-11.1596
▁sake	-11.1596
via	-11.1597
19	-11.1597
▁scared	-11.16
▁30,	-11.1603
▁Want	-11.1604
▁static	-11.1607
▁applies	-11.1607
▁knock	-11.1609
▁Tokyo	-11.1611
▁Weiss	-11.1612
▁nonprofit	-11.1613
▁similarly	-11.1613
▁promoted	-11.1615
▁ought	-11.1617
▁operated	-11.162
▁Collins	-11.162
▁lands	-11.1626
▁neutral	-11.1626
data	-11.1628
▁Nu	-11.163
▁beaten	-11.1631
▁Speaker	-11.1634
▁Er	-11.1636
▁criminals	-11.164
▁documentation	-11.1643
▁$20	-11.1644
▁impressed	-11.1644
iness	-11.1647
▁Commissioner	-11.1648
▁foods	-11.1649
▁Ga	-11.165
▁12,	-11.165
49	-11.1651
▁MPs	-11.1652
▁checked	-11.1653
▁stops	-11.1654
▁characteristics	-11.1656
▁extract	-11.1658
300	-11.166
▁wire	-11.1661
▁uncertainty	-11.1662
▁Steam	-11.1665
▁alien	-11.1666
▁Between	-11.1667
▁Ward	-11.1667
▁innovative	-11.1671
▁retain	-11.1671
election	-11.1672
map	-11.1674
▁Hotel	-11.1678
▁outcomes	-11.1678
stein	-11.1681
▁investigated	-11.1683
▁rolled	-11.1688
▁Kurdish	-11.1689
▁complained	-11.1693
▁Summer	-11.1693
ep	-11.1694
▁conviction	-11.1698
▁transferred	-11.1699
▁enabled	-11.17
▁influenced	-11.1703
▁Brandon	-11.1704
▁flights	-11.1706
▁Mario	-11.1707
▁convert	-11.171
vis	-11.1712
▁Mount	-11.1712
Be	-11.1714
▁inbox	-11.1715
▁entity	-11.1719
▁(2)	-11.1722
▁cook	-11.1722
▁examine	-11.1723
century	-11.1729
ps	-11.1731
▁Arena	-11.1732
▁globe	-11.1735
▁Cloud	-11.1737
▁invested	-11.1738
▁Baker	-11.1743
cho	-11.1745
▁Non	-11.1748
▁Hu	-11.1753
▁brands	-11.1753
TA	-11.1753
▁600	-11.1755
▁routes	-11.1756
▁employer	-11.1757
▁solely	-11.1759
ice	-11.1759
▁wireless	-11.176
▁250	-11.1761
▁RE	-11.1762
profile	-11.1765
▁Dean	-11.1767
▁Luke	-11.1768
▁variables	-11.177
▁beta	-11.1774
▁lens	-11.1775
▁fingers	-11.1777
04	-11.1777
▁loves	-11.1778
▁icon	-11.178
▁Draft	-11.1781
▁Ca	-11.1783
▁mice	-11.1785
ula	-11.1785
▁wore	-11.1785
▁agreements	-11.1786
▁chamber	-11.1788
▁Singapore	-11.1794
▁Philippines	-11.1795
▁Sar	-11.1796
tu	-11.18
▁bands	-11.1801
▁Pop	-11.1802
▁Reid	-11.1803
▁Hamas	-11.1803
▁bags	-11.1803
▁pin	-11.1805
winning	-11.1808
▁Cuba	-11.1815
▁slight	-11.1818
▁manual	-11.1818
▁intelligent	-11.1819
▁Small	-11.1823
pp	-11.1823
▁Common	-11.1825
▁accuracy	-11.1827
watch	-11.1827
▁camps	-11.1829
▁pose	-11.1831
▁epic	-11.1832
▁Ann	-11.1832
▁Champions	-11.1833
▁plug	-11.1835
sha	-11.1835
▁publisher	-11.1837
▁luxury	-11.184
bed	-11.1843
code	-11.1846
▁traded	-11.1849
▁launching	-11.185
Co	-11.1853
▁Gun	-11.1853
▁tobacco	-11.1854
▁cooking	-11.1855
▁calendar	-11.1857
▁Stanley	-11.1864
▁climb	-11.1865
▁Dream	-11.1866
▁Mitt	-11.1867
▁Sound	-11.1867
▁transmission	-11.1871
▁realistic	-11.1873
▁accusations	-11.1874
▁possibilities	-11.1878
▁Mother	-11.188
▁Che	-11.1883
▁boot	-11.1883
▁jet	-11.1884
▁liberty	-11.1885
▁residential	-11.1885
▁Alaska	-11.1886
▁ultra	-11.1886
human	-11.1889
▁sustained	-11.1889
▁murdered	-11.1891
News	-11.1892
▁compelling	-11.1894
▁stats	-11.1898
van	-11.19
▁meters	-11.1901
▁dressed	-11.1901
▁overnight	-11.1902
▁00	-11.1903
▁Knight	-11.1905
▁adapt	-11.1905
▁Coalition	-11.1906
▁accompanied	-11.1909
▁cleared	-11.191
▁ET	-11.191
3)	-11.1911
LE	-11.1911
▁transformation	-11.1914
ati	-11.1915
▁criteria	-11.1915
23	-11.1916
▁economics	-11.1917
▁agriculture	-11.1918
▁scrutiny	-11.1918
▁tears	-11.1919
▁1993	-11.1919
▁earning	-11.1919
▁peer	-11.192
▁projected	-11.192
▁adjust	-11.1921
25	-11.1922
▁spotted	-11.1922
▁privilege	-11.1924
▁radar	-11.1925
▁Blood	-11.1927
▁resort	-11.1928
▁Staff	-11.1934
++	-11.1937
▁2.5	-11.1938
.[5]	-11.1939
lar	-11.1939
▁cops	-11.1941
▁Jane	-11.1942
▁Sessions	-11.1943
▁migration	-11.1948
▁startup	-11.1952
▁approve	-11.1952
about	-11.1952
1,	-11.1956
▁headlines	-11.1959
Ma	-11.196
▁Wikipedia	-11.196
▁shake	-11.1965
▁shops	-11.1966
▁performances	-11.197
source	-11.197
?)	-11.1971
96	-11.1972
▁Beyond	-11.1974
▁Kickstarter	-11.1975
▁assists	-11.1976
▁collecting	-11.1976
▁Cat	-11.1981
Just	-11.1982
▁pledge	-11.1984
▁consists	-11.1985
market	-11.1988
▁exploration	-11.1989
▁layers	-11.199
▁subtle	-11.199
▁complexity	-11.1991
▁barrel	-11.1992
▁bullet	-11.1993
▁Fa	-11.1993
▁pregnancy	-11.1994
▁Ice	-11.1994
card	-11.1998
?"	-11.1998
▁Murphy	-11.2003
▁availability	-11.2004
▁1996	-11.2004
▁oldest	-11.2005
▁Forest	-11.2006
▁longtime	-11.2007
▁reject	-11.2007
MB	-11.2009
▁quantum	-11.2013
▁Philip	-11.2014
▁Patriots	-11.2015
gov	-11.2018
founder	-11.2018
▁theft	-11.2019
▁SA	-11.2019
▁participating	-11.202
▁SEC	-11.2024
▁stopping	-11.2027
ero	-11.2032
▁fucking	-11.2033
Of	-11.2034
▁hosts	-11.2035
▁raises	-11.2036
▁supposedly	-11.2041
▁Susan	-11.2042
▁20,	-11.2043
▁commentary	-11.2049
▁Commons	-11.2053
▁rotation	-11.2053
▁Airport	-11.2054
▁Rio	-11.2056
▁produces	-11.2057
▁Swedish	-11.2058
▁Posts	-11.206
▁libraries	-11.206
▁electrical	-11.2061
▁occasions	-11.2061
▁£1	-11.2062
▁bathroom	-11.2063
▁administrative	-11.2064
▁constructed	-11.207
▁documented	-11.2071
▁examined	-11.2072
▁chronic	-11.2073
▁ministers	-11.2078
▁tension	-11.2079
▁distinction	-11.2079
▁guidance	-11.208
▁harsh	-11.208
▁mysterious	-11.2082
▁infection	-11.2084
▁mouse	-11.2084
▁cult	-11.2084
▁Pay	-11.2085
▁Heat	-11.2085
▁arena	-11.2085
▁painful	-11.2086
▁Marshall	-11.2088
▁Asked	-11.209
▁su	-11.2094
fish	-11.2094
▁laptop	-11.2094
▁Wolf	-11.2096
▁neighborhoods	-11.2097
▁steal	-11.2098
▁immune	-11.2099
▁gross	-11.2104
DC	-11.2106
▁Players	-11.2107
ä	-11.2109
▁Quebec	-11.2111
▁socialist	-11.2117
▁celebrated	-11.2122
▁Hart	-11.2124
▁100,000	-11.2126
▁Fixed	-11.2127
▁awful	-11.2128
-7	-11.2128
▁hook	-11.2129
▁wound	-11.213
▁FOR	-11.2131
▁corrupt	-11.2131
night	-11.2132
▁devastating	-11.2132
hard	-11.2132
▁steam	-11.2133
ef	-11.2135
▁57	-11.2139
▁Phone	-11.2139
▁occupation	-11.2143
▁grave	-11.2146
▁indication	-11.2146
▁bubble	-11.2148
▁instant	-11.2149
ments	-11.2149
▁Profile	-11.2155
▁coin	-11.2156
▁Abbott	-11.2158
▁mile	-11.2158
▁competitors	-11.2159
▁babies	-11.2159
▁Congressional	-11.216
▁Vladimir	-11.216
cut	-11.2161
▁ambitious	-11.2163
▁Hampshire	-11.2164
▁acted	-11.2166
▁sauce	-11.2169
▁Magazine	-11.2171
▁golf	-11.2171
▁Communist	-11.2171
-9	-11.2173
▁fights	-11.2176
▁tale	-11.2178
▁crossed	-11.2181
▁ally	-11.2182
500	-11.219
▁Sal	-11.2192
▁reserve	-11.2192
yan	-11.2193
▁exploring	-11.2193
▁wisdom	-11.2193
two	-11.2194
▁Looking	-11.2194
▁conflicts	-11.2195
▁eager	-11.2196
▁golden	-11.2196
▁confirmation	-11.22
space	-11.2202
rie	-11.2206
▁12-	-11.2209
▁viewing	-11.2211
▁corn	-11.2213
▁ranging	-11.2214
▁Melbourne	-11.2215
▁addressing	-11.2215
▁Bio	-11.2215
▁RT	-11.2218
speed	-11.222
▁mask	-11.2221
▁Too	-11.2221
▁Canadians	-11.2222
▁Hawaii	-11.2225
▁amongst	-11.2228
▁operators	-11.2228
▁bat	-11.2231
▁hosting	-11.2234
eb	-11.2238
▁iconic	-11.2241
▁container	-11.2244
▁ceiling	-11.2245
▁Senior	-11.2249
▁fishing	-11.225
▁annually	-11.2251
▁newsletters	-11.2251
▁Corps	-11.2261
ali	-11.2261
▁awards	-11.2261
▁keen	-11.2261
▁attorneys	-11.2263
▁flip	-11.2267
▁supporter	-11.2267
▁worship	-11.2268
▁bizarre	-11.2268
▁delayed	-11.2269
▁1997	-11.2271
▁interactions	-11.2272
dan	-11.2272
▁Lady	-11.2276
▁safely	-11.2276
▁meanwhile	-11.2279
▁Ab	-11.2281
▁violated	-11.2283
file	-11.2285
▁raid	-11.2288
▁Shi	-11.2288
elle	-11.229
▁counties	-11.2292
▁Robin	-11.2295
cus	-11.2298
face	-11.23
nes	-11.2302
07	-11.2302
▁Orange	-11.2303
▁2009.	-11.2306
▁$15	-11.2307
▁mm	-11.2308
▁FA	-11.231
▁missiles	-11.2312
▁reminder	-11.2313
▁preventing	-11.2314
cc	-11.2317
▁beneath	-11.2317
▁unfair	-11.2321
▁Storm	-11.2322
anti	-11.2323
▁smell	-11.2327
▁lady	-11.2329
▁opens	-11.233
▁mono	-11.233
▁rifle	-11.2332
▁FCC	-11.2333
▁Low	-11.2334
gun	-11.2336
SP	-11.2337
▁unfortunately	-11.2337
▁offseason	-11.2337
▁horrible	-11.234
▁Net	-11.2341
▁productivity	-11.2342
verse	-11.2348
▁combine	-11.2349
▁Christie	-11.235
▁sacrifice	-11.2351
▁ensuring	-11.2352
▁balls	-11.2352
▁appearing	-11.2355
▁circuit	-11.2355
▁20-	-11.2355
▁Round	-11.2357
/1	-11.236
▁Campbell	-11.2362
▁slide	-11.2364
▁Saint	-11.2364
▁2008.	-11.2365
▁Ram	-11.2369
▁finishing	-11.2371
▁photographs	-11.2371
▁calculated	-11.2377
▁disappeared	-11.2378
▁(6	-11.2384
▁rewards	-11.2385
▁reviewed	-11.2386
▁impacts	-11.2388
▁presents	-11.2389
▁quietly	-11.2389
how	-11.2389
88	-11.2391
where	-11.2393
▁creator	-11.2396
▁significance	-11.2396
▁countless	-11.2397
▁pricing	-11.2399
cal	-11.2403
▁58	-11.2404
▁Hal	-11.2407
▁hiding	-11.2407
▁installation	-11.2409
▁AR	-11.2413
av	-11.2415
quality	-11.2415
”)	-11.2416
▁Berkeley	-11.2418
▁verify	-11.2422
▁react	-11.2423
▁tanks	-11.2425
order	-11.2425
▁threshold	-11.2426
PC	-11.2428
nce	-11.2429
69	-11.243
▁greenhouse	-11.243
▁reflected	-11.2431
!!	-11.2432
▁Madrid	-11.2434
▁sophisticated	-11.2434
▁venue	-11.2435
▁Mobile	-11.2438
▁divide	-11.244
▁ethics	-11.244
▁Eagles	-11.2441
▁Bloomberg	-11.2442
ida	-11.2443
▁gradually	-11.2443
▁tune	-11.2444
med	-11.2445
▁oxygen	-11.2448
▁frustration	-11.2448
▁SO	-11.2449
▁tablet	-11.245
▁resume	-11.245
▁Holy	-11.2452
IP	-11.2452
▁assess	-11.2453
▁males	-11.2454
▁Guide	-11.2455
▁Maria	-11.2456
▁Awards	-11.2458
▁dirty	-11.2458
ens	-11.2461
▁Title	-11.2461
▁detained	-11.2464
▁Alberta	-11.2464
▁Sh	-11.2465
▁Corp	-11.2469
ue	-11.247
eau	-11.2471
▁podcast	-11.2473
▁duration	-11.2474
▁happiness	-11.2476
▁Kyle	-11.2478
▁coordinator	-11.2481
▁Kerry	-11.2481
▁Mu	-11.2484
▁Parker	-11.2484
▁Ber	-11.2487
▁parameters	-11.2487
▁node	-11.2491
▁addiction	-11.2491
▁Gray	-11.2492
media	-11.2492
IC	-11.2495
zer	-11.2496
▁sole	-11.2497
▁converted	-11.2498
▁AFP	-11.2501
▁Bit	-11.2501
▁replacing	-11.2503
▁Ian	-11.2504
▁bases	-11.2506
▁affects	-11.2506
mark	-11.2508
text	-11.2509
AL	-11.2509
▁pension	-11.2509
hy	-11.251
▁Currently	-11.251
▁expects	-11.2511
▁Base	-11.2512
▁singing	-11.2513
ric	-11.2514
Get	-11.2514
▁altogether	-11.2516
▁Obviously	-11.2516
▁Caption	-11.2519
▁fatal	-11.252
▁Evans	-11.2523
PS	-11.2524
▁sleeping	-11.2526
▁uncomfortable	-11.2526
▁carrier	-11.2526
▁1000	-11.2527
▁ma	-11.2529
▁departments	-11.2529
▁Election	-11.2529
-19	-11.2529
▁tissue	-11.253
▁NY	-11.2533
▁Political	-11.2533
▁seeks	-11.2535
▁discipline	-11.2536
▁demonstration	-11.2539
cap	-11.254
▁surge	-11.2541
▁advocacy	-11.2541
▁pending	-11.2542
▁Records	-11.2543
▁lake	-11.2544
▁preparation	-11.2547
▁Watson	-11.2549
▁panels	-11.2549
▁Deep	-11.2549
</	-11.255
▁deserves	-11.2552
▁Tampa	-11.2556
core	-11.2557
SC	-11.2558
▁bonds	-11.2558
▁visits	-11.2563
▁equipped	-11.2565
▁duties	-11.2566
▁rivals	-11.2571
▁Lawrence	-11.2571
▁Come	-11.2573
▁designated	-11.2574
▁belong	-11.2577
▁bail	-11.2578
▁mod	-11.2583
▁lighting	-11.2586
ama	-11.2591
▁800	-11.2591
▁precise	-11.2593
iya	-11.2595
97	-11.2597
▁divorce	-11.2598
looking	-11.2604
▁Similarly	-11.2605
▁72	-11.2608
▁restricted	-11.261
▁Consider	-11.2611
▁witnessed	-11.2612
▁viable	-11.2615
▁AD	-11.2616
▁1991	-11.2617
LY	-11.2618
DA	-11.2622
▁trains	-11.2624
▁bugs	-11.2625
▁alter	-11.2627
▁Penn	-11.2628
▁prayer	-11.2628
▁Safety	-11.263
▁Sunni	-11.2632
▁transform	-11.2635
▁notably	-11.2637
▁waters	-11.2637
▁YOU	-11.2638
▁Tan	-11.2639
ei	-11.2639
▁360	-11.2646
▁trash	-11.2648
▁enterprise	-11.265
pur	-11.2652
▁empire	-11.2655
▁imagination	-11.2655
ever	-11.2655
SA	-11.2656
▁resist	-11.2657
▁planes	-11.2658
▁agricultural	-11.2661
talk	-11.2663
▁essay	-11.2663
▁pizza	-11.2665
▁reflects	-11.2666
▁prevented	-11.2666
tri	-11.2668
▁separated	-11.2669
▁proportion	-11.2669
first	-11.2674
▁Kings	-11.2681
▁Whatever	-11.2685
▁pit	-11.2686
▁Russians	-11.2689
▁hack	-11.269
▁pursuit	-11.269
▁Flynn	-11.2691
From	-11.2698
▁Olympics	-11.2699
▁Benjamin	-11.2699
▁arrests	-11.2701
▁hacking	-11.2702
▁30-	-11.2703
▁Added	-11.2704
ks	-11.2706
▁Garden	-11.2714
▁beef	-11.2714
▁Due	-11.2715
▁orientation	-11.2716
▁suggestion	-11.2717
▁31,	-11.2719
▁celebration	-11.272
▁min	-11.2721
▁yield	-11.2722
▁winners	-11.2722
▁fascinating	-11.2726
▁2:	-11.2726
▁endless	-11.2727
▁technological	-11.2731
▁Federation	-11.2736
▁Buffalo	-11.2737
▁sa	-11.2739
▁forecast	-11.2741
CC	-11.2743
▁explosive	-11.2746
▁Mitchell	-11.2752
▁20%	-11.2754
▁acquire	-11.2754
▁breast	-11.2755
▁span	-11.2755
▁delivering	-11.2757
85	-11.276
▁faculty	-11.2762
▁questioning	-11.2768
▁streak	-11.277
▁fits	-11.277
▁pressing	-11.2772
base	-11.2774
▁62	-11.2775
home	-11.2778
▁honestly	-11.2782
▁Brand	-11.2791
▁stunning	-11.2798
▁appointment	-11.2798
▁dealt	-11.2799
▁drones	-11.2799
▁judicial	-11.28
▁Dakota	-11.28
▁mi	-11.2803
▁HTML	-11.2804
▁Start	-11.2804
▁Todd	-11.2805
▁85	-11.2806
▁Command	-11.2808
▁oversight	-11.2811
▁contributing	-11.2811
▁auction	-11.2813
▁citizenship	-11.2814
▁translation	-11.2814
▁10,	-11.2815
▁Franklin	-11.2816
hood	-11.2816
▁Lynch	-11.2816
▁highlighted	-11.2817
▁Doug	-11.2821
▁2,000	-11.2822
▁Val	-11.2822
▁partially	-11.2823
▁Money	-11.2823
▁shooter	-11.2825
▁parks	-11.2825
school	-11.2828
▁damn	-11.2834
▁summary	-11.2837
▁Bu	-11.284
▁suggestions	-11.2841
▁poorly	-11.2841
▁modest	-11.2841
▁ecosystem	-11.2841
▁till	-11.2841
▁exploit	-11.2842
▁mechanics	-11.2847
▁Deputy	-11.2847
▁workplace	-11.2847
▁hybrid	-11.2849
▁revenues	-11.2851
▁Short	-11.2854
▁Bur	-11.2854
▁Christianity	-11.2854
ash	-11.2855
▁bombs	-11.2857
▁IRS	-11.2857
mit	-11.2858
▁monetary	-11.2859
▁Talk	-11.2862
▁midfielder	-11.2865
▁strengthen	-11.2866
▁Campaign	-11.2867
▁seventh	-11.287
▁seeds	-11.2872
▁emerge	-11.2875
->	-11.2875
▁stomach	-11.2875
though	-11.2876
string	-11.2877
▁Anyone	-11.2878
▁remembered	-11.2879
away	-11.288
▁trips	-11.2882
▁assumption	-11.2883
▁GT	-11.2884
▁Eventually	-11.289
ag	-11.2891
▁Save	-11.2893
▁capability	-11.2894
▁leak	-11.2897
FA	-11.2901
▁1995	-11.2901
▁mixture	-11.2902
▁themes	-11.2902
▁operational	-11.2906
▁Prize	-11.2908
▁grants	-11.291
▁panic	-11.2913
▁Ph	-11.2914
▁Bull	-11.2915
▁pink	-11.2916
▁observations	-11.2922
▁devoted	-11.2924
ration	-11.2928
▁hyper	-11.2928
ram	-11.293
▁preview	-11.2931
▁Nevertheless	-11.2935
ging	-11.2937
▁Terry	-11.2939
▁Walter	-11.294
▁entities	-11.2943
▁Lions	-11.2944
maker	-11.2944
▁strongest	-11.2948
▁Douglas	-11.2949
▁expertise	-11.295
▁focuses	-11.295
second	-11.2953
▁stressed	-11.2954
▁limitations	-11.2954
▁legend	-11.2955
▁curve	-11.2957
95	-11.2958
▁Fu	-11.2958
▁legislature	-11.2958
▁arguably	-11.296
▁displays	-11.2961
▁shocking	-11.2962
▁gate	-11.2963
team	-11.2963
▁revealing	-11.2963
▁Barry	-11.2965
▁rational	-11.2968
▁complain	-11.2969
read	-11.297
▁qualify	-11.2971
▁#2	-11.2973
▁euro	-11.2974
▁habit	-11.2976
-20	-11.2979
▁Tell	-11.298
▁applying	-11.2981
▁teen	-11.2982
▁Maine	-11.2982
▁delegates	-11.2982
▁humanitarian	-11.2983
half	-11.2985
▁gym	-11.2985
▁DE	-11.2985
▁Fast	-11.2987
▁painted	-11.2988
42	-11.2989
▁lobby	-11.299
▁animated	-11.2993
▁motivation	-11.2994
▁Hat	-11.2995
▁Neil	-11.2998
▁heritage	-11.3001
▁attendance	-11.3004
fold	-11.3008
▁crops	-11.301
▁starter	-11.3011
▁meta	-11.3012
▁experiencing	-11.3017
▁slavery	-11.3018
▁Express	-11.3018
nan	-11.302
▁Oxford	-11.3021
Le	-11.3021
▁marine	-11.3024
▁References	-11.3029
▁Neither	-11.3032
▁instantly	-11.3033
▁je	-11.3033
▁mandatory	-11.3035
▁Cowboys	-11.3036
▁$50	-11.3036
▁accomplished	-11.3039
▁Tar	-11.3039
ston	-11.304
table	-11.3042
▁Urban	-11.3044
▁acquisition	-11.3044
▁makers	-11.3044
▁frustrated	-11.3044
▁blast	-11.3045
fe	-11.3046
.[6]	-11.3054
▁coins	-11.3054
▁Pakistani	-11.3056
▁Natural	-11.3059
▁unnecessary	-11.3059
▁Dick	-11.3059
▁derived	-11.3063
▁Rice	-11.3063
▁Swiss	-11.3063
plus	-11.3066
▁2005,	-11.3066
▁computing	-11.3069
▁logical	-11.3071
▁respective	-11.3071
▁Verizon	-11.3073
▁fence	-11.3074
▁Micro	-11.3081
▁acceptance	-11.3082
▁hostile	-11.3083
▁neo	-11.3083
▁Chuck	-11.3084
▁transparent	-11.3086
lon	-11.3088
▁layout	-11.3088
▁breach	-11.3091
▁advised	-11.3099
▁execute	-11.3099
▁disturbing	-11.3104
▁95	-11.3106
▁Country	-11.3107
▁Mind	-11.3111
▁touched	-11.3111
▁Besides	-11.3112
▁fastest	-11.3112
▁relatives	-11.3113
▁funeral	-11.3115
▁NCAA	-11.312
▁drunk	-11.3121
▁vegan	-11.3121
▁Fred	-11.3121
▁firearms	-11.3122
tur	-11.3122
▁subsidies	-11.3123
▁permitted	-11.3126
▁reserves	-11.3127
▁Barcelona	-11.3129
▁declare	-11.3132
▁Singh	-11.3135
▁completion	-11.3135
▁sword	-11.3135
▁denial	-11.3136
minded	-11.3138
▁earnings	-11.3138
▁_	-11.314
▁1930	-11.3146
▁Liberty	-11.3147
▁Switzerland	-11.3147
▁Around	-11.3153
ious	-11.3153
ken	-11.3154
▁2020	-11.3157
▁McConnell	-11.316
MA	-11.316
▁Ash	-11.3161
shi	-11.3163
▁powered	-11.3165
sion	-11.3166
▁token	-11.3166
illa	-11.3167
▁illegally	-11.3168
▁Multi	-11.3168
▁Number	-11.3171
▁Morning	-11.3172
▁Yahoo	-11.3172
▁Lane	-11.3173
▁Try	-11.3174
▁Almost	-11.3174
▁composed	-11.3176
▁mechanisms	-11.3178
ata	-11.3179
▁DVD	-11.318
ib	-11.3182
▁tends	-11.3183
▁Crown	-11.3183
▁Something	-11.3184
▁Mal	-11.3186
▁und	-11.3188
▁graph	-11.3189
▁outrage	-11.3191
▁shorter	-11.3192
▁boundaries	-11.3192
▁commands	-11.3193
▁Ve	-11.3195
▁historically	-11.3195
oh	-11.3196
▁traveled	-11.32
▁id	-11.3201
▁enforce	-11.3203
▁vaccine	-11.3208
▁protections	-11.3208
ese	-11.321
▁reply	-11.3211
▁flew	-11.3214
▁drafted	-11.3215
▁distant	-11.3215
▁enjoying	-11.3216
▁riders	-11.3217
▁highway	-11.322
▁Villa	-11.322
▁Taiwan	-11.322
▁composition	-11.3221
▁Roberts	-11.3223
▁59	-11.3224
▁Norway	-11.3225
▁Jake	-11.3232
ban	-11.3232
▁Danny	-11.3233
▁prototype	-11.3233
▁66	-11.3234
▁Bre	-11.3235
▁Oil	-11.3236
▁bones	-11.324
tar	-11.324
▁circles	-11.3241
▁realm	-11.3244
▁speeds	-11.3245
▁chemicals	-11.3245
▁Case	-11.3245
▁responding	-11.3245
▁vacation	-11.3246
▁armor	-11.3247
▁grateful	-11.3247
▁resigned	-11.3248
▁newspapers	-11.3249
▁ON	-11.325
▁consequence	-11.325
▁ugly	-11.3251
/10	-11.3252
▁Jets	-11.3255
▁instruments	-11.3256
▁accomplish	-11.3256
▁Forum	-11.3259
▁Shadow	-11.3259
▁secured	-11.3259
▁Gear	-11.326
▁environments	-11.3262
▁Friends	-11.3262
▁MS	-11.3262
▁chips	-11.3263
▁flexible	-11.3263
▁longest	-11.3264
▁Bond	-11.3266
ay	-11.3266
400	-11.3267
▁Ya	-11.3267
▁Cole	-11.3268
▁optimistic	-11.327
▁Die	-11.327
▁Heart	-11.327
far	-11.3271
▁printing	-11.3271
Mo	-11.3273
▁evaluation	-11.3276
▁secular	-11.3276
▁drinks	-11.3278
▁reflection	-11.3279
(""	-11.328
kar	-11.328
28	-11.3282
ub	-11.3282
▁Keith	-11.3283
▁fraction	-11.3285
/2	-11.3288
▁safer	-11.329
▁inform	-11.329
▁boards	-11.3295
▁reactions	-11.3298
▁penalties	-11.33
02	-11.3307
▁scholars	-11.3307
▁Military	-11.3308
▁processor	-11.3311
▁Cohen	-11.3311
▁scary	-11.3313
yo	-11.3315
▁formally	-11.3316
▁IBM	-11.3319
▁desired	-11.332
▁Temple	-11.3321
▁treating	-11.3321
▁Cam	-11.3323
▁declaration	-11.3325
▁Tyler	-11.3331
▁Cambridge	-11.3331
▁controlling	-11.3331
▁withdrawal	-11.3337
▁crude	-11.3338
▁ME	-11.3339
▁harmful	-11.3339
▁dive	-11.334
AS	-11.3344
.00	-11.3349
▁Pence	-11.335
▁Posted	-11.3352
row	-11.3353
▁sp	-11.3355
path	-11.3357
▁neighbor	-11.336
▁buyers	-11.3361
▁Blog	-11.3362
▁respected	-11.3364
▁Voice	-11.3367
▁assured	-11.3367
rated	-11.3371
▁porn	-11.3373
▁manufacturer	-11.3374
Can	-11.3374
▁Jamie	-11.3375
▁ears	-11.3376
▁Trudeau	-11.3376
▁myth	-11.3382
▁cake	-11.3383
66	-11.3384
▁63	-11.3386
▁investing	-11.3394
after	-11.3394
▁excess	-11.3395
▁Ever	-11.3396
▁teenager	-11.3397
▁participated	-11.3398
ros	-11.3399
▁filling	-11.34
▁Arkansas	-11.3401
▁Arts	-11.3406
▁tunnel	-11.3407
▁knocked	-11.3409
die	-11.341
dale	-11.3412
su	-11.3412
▁cricket	-11.3412
chan	-11.3413
▁spreading	-11.3417
▁condemned	-11.3418
km	-11.3419
▁Studio	-11.3419
▁Oliver	-11.342
▁hopeful	-11.342
▁Visit	-11.3424
▁Pass	-11.3428
▁Circuit	-11.3428
ele	-11.343
▁Notes	-11.3431
▁spacecraft	-11.3435
▁exchanges	-11.3435
03	-11.3436
▁Rand	-11.3437
87	-11.3438
▁Jefferson	-11.3438
▁innings	-11.3439
▁naked	-11.344
▁difficulties	-11.3441
▁Inside	-11.3442
▁Rogers	-11.3443
▁intensity	-11.3444
▁Charlotte	-11.3445
ena	-11.3446
▁trusted	-11.3447
▁colleague	-11.345
▁Crime	-11.3451
▁Books	-11.3452
▁welcomed	-11.3454
▁trapped	-11.3457
om	-11.3457
▁compound	-11.3463
▁hatred	-11.3464
05	-11.3466
▁1994	-11.347
▁1/2	-11.347
▁Morris	-11.347
▁Reading	-11.3476
75	-11.3476
▁tenure	-11.3477
▁Carson	-11.3478
▁Pick	-11.3479
▁balanced	-11.3479
being	-11.3481
▁1983	-11.3481
tan	-11.3485
▁consume	-11.3485
▁affair	-11.3486
▁Salt	-11.3488
▁placing	-11.3488
ily	-11.3489
▁priorities	-11.349
▁mechanical	-11.3491
▁cats	-11.3491
▁DJ	-11.3492
▁Advertisements	-11.3493
▁1982	-11.3496
▁Theatre	-11.3497
RE	-11.3497
ado	-11.3499
▁gaining	-11.35
▁Communications	-11.35
▁5-	-11.3501
▁Mission	-11.3501
▁pipe	-11.3503
▁operates	-11.3503
▁economist	-11.3505
ade	-11.3506
▁OR	-11.3509
▁99	-11.3509
▁pledged	-11.351
▁earliest	-11.3514
▁Arthur	-11.3514
aging	-11.3514
▁initiatives	-11.3522
▁fuck	-11.3522
mile	-11.3525
▁Seven	-11.3528
ima	-11.3528
▁strain	-11.3528
▁conscious	-11.3529
▁WWE	-11.353
▁charter	-11.353
▁Spirit	-11.353
lay	-11.3532
▁disclosure	-11.3538
▁satisfied	-11.354
▁anticipated	-11.354
▁achievement	-11.3542
▁provincial	-11.3548
▁Fish	-11.3548
CO	-11.3549
▁mega	-11.3555
▁Release	-11.3555
▁×	-11.3559
▁instrument	-11.356
▁density	-11.3563
because	-11.3563
uck	-11.3565
ase	-11.3567
▁Village	-11.3568
▁Dog	-11.3571
place	-11.3572
▁Coach	-11.3573
▁wise	-11.3574
ES	-11.3574
▁flexibility	-11.3575
▁timeline	-11.3576
body	-11.3578
▁walks	-11.358
fully	-11.3583
▁rice	-11.3584
▁Search	-11.3584
▁posed	-11.3586
when	-11.3589
▁Along	-11.359
▁deliberately	-11.3593
Hey	-11.3593
▁suppose	-11.3594
▁islands	-11.3594
▁Machine	-11.3595
▁doctrine	-11.3597
▁pressed	-11.3598
▁spy	-11.3598
▁certificate	-11.3599
▁alternate	-11.3603
▁reminded	-11.3606
▁remind	-11.361
▁Universe	-11.3611
▁Ci	-11.3615
▁treaty	-11.3617
▁taxi	-11.3619
have	-11.362
Name	-11.3621
▁elderly	-11.3622
▁tri	-11.3625
▁discount	-11.3629
ala	-11.363
▁compliance	-11.3631
▁Child	-11.3632
▁Exchange	-11.3636
▁developments	-11.3638
▁wrapped	-11.3641
▁grip	-11.3641
▁cache	-11.3646
▁Spider	-11.3646
ming	-11.3648
▁presumably	-11.3649
94	-11.3649
▁zones	-11.3651
▁rumors	-11.3651
▁Ubuntu	-11.3658
▁evaluate	-11.366
▁Mas	-11.3661
gh	-11.3661
▁scenarios	-11.3661
▁ideological	-11.3661
▁Anne	-11.3663
▁breakfast	-11.3665
▁minorities	-11.3665
▁regret	-11.3665
34	-11.3667
▁quotes	-11.3667
▁sentences	-11.3669
▁attributed	-11.3672
▁em	-11.3672
▁respondents	-11.3673
▁Cincinnati	-11.3675
▁massacre	-11.3676
RC	-11.3676
▁Universal	-11.3677
▁terminal	-11.3677
▁Photograph	-11.3678
▁regulators	-11.3679
▁spill	-11.368
▁Merkel	-11.3681
ters	-11.3682
65	-11.3683
▁defenders	-11.3688
▁MI	-11.3689
▁Harvey	-11.369
See	-11.3691
▁worthy	-11.3695
mal	-11.3695
▁excessive	-11.3695
▁technically	-11.3696
▁feminist	-11.3698
▁identifying	-11.3699
▁lo	-11.3701
than	-11.3702
▁rushed	-11.3702
▁slave	-11.3702
▁Conservatives	-11.3702
▁1989	-11.3703
31	-11.3703
▁damaging	-11.3704
▁volunteer	-11.3705
▁approaching	-11.3707
▁avoided	-11.371
▁VA	-11.371
▁Ch	-11.3716
▁refusing	-11.3721
▁leverage	-11.3721
▁announcing	-11.3723
▁Fla	-11.3725
▁Close	-11.3729
▁examination	-11.3731
▁Fantasy	-11.3733
▁Off	-11.3733
▁jokes	-11.3735
ral	-11.3739
▁Brady	-11.3745
▁pursuing	-11.3746
▁resolved	-11.3749
dia	-11.3749
cast	-11.3752
▁cop	-11.3753
▁explicit	-11.3755
▁triggered	-11.3762
79	-11.3762
▁sparked	-11.3762
▁urge	-11.3764
▁peers	-11.3764
▁humor	-11.3765
▁mutual	-11.3766
bu	-11.3768
▁arrangement	-11.3769
▁AS	-11.377
▁bow	-11.3772
lie	-11.3773
▁economists	-11.3774
fu	-11.3775
▁sons	-11.3775
▁observation	-11.3775
▁reaches	-11.3776
▁User	-11.3776
▁Finance	-11.3777
▁Imagine	-11.3778
▁pepper	-11.3778
▁exhibition	-11.3779
▁capitalist	-11.378
▁legendary	-11.378
▁briefing	-11.3781
▁hackers	-11.3782
▁AMD	-11.3783
▁conducting	-11.3783
▁Stop	-11.3783
▁AL	-11.3787
▁Vermont	-11.3794
▁Columbus	-11.3797
▁Polish	-11.3798
▁Bel	-11.3799
▁Rod	-11.38
show	-11.3801
▁deciding	-11.3803
▁shield	-11.3804
▁Venezuela	-11.3805
▁alike	-11.3805
▁parade	-11.3805
▁donated	-11.3806
▁screening	-11.3806
▁tendency	-11.3809
▁Beck	-11.3809
iest	-11.3811
▁unfortunate	-11.3812
▁Fan	-11.3812
▁Room	-11.3812
▁tensions	-11.3813
▁equity	-11.3813
▁Glass	-11.3815
▁floating	-11.3815
▁Madison	-11.3817
▁sensor	-11.3819
▁Brazilian	-11.382
▁Bryant	-11.3821
▁conclusions	-11.3824
▁churches	-11.3825
▁donation	-11.3829
▁gut	-11.3831
▁audiences	-11.3831
46	-11.3833
▁undermine	-11.3834
▁rap	-11.3834
NC	-11.3835
▁particles	-11.3835
▁Unit	-11.3837
▁Pin	-11.3837
▁portfolio	-11.3837
▁detected	-11.3838
▁identification	-11.384
▁im	-11.3843
89	-11.3844
▁mountains	-11.3848
▁batteries	-11.3849
▁Author	-11.3849
▁Gay	-11.3849
26	-11.385
▁Wal	-11.3852
▁suitable	-11.3853
▁sentiment	-11.3854
▁lanes	-11.3857
▁cluster	-11.3859
had	-11.386
▁bits	-11.3861
▁poster	-11.3863
ites	-11.3866
▁taxpayer	-11.3868
▁Pra	-11.387
▁earthquake	-11.3874
▁Hunt	-11.3874
onic	-11.3876
ON	-11.3879
▁economies	-11.388
▁grabbed	-11.388
▁designers	-11.3885
▁essence	-11.3886
▁Working	-11.3886
55	-11.3887
▁($	-11.3891
▁Hope	-11.3892
▁abstract	-11.3894
▁67	-11.3898
▁chase	-11.39
▁survivors	-11.3901
▁clicking	-11.3901
▁MA	-11.3902
▁clever	-11.3906
▁IV	-11.3908
4)	-11.3909
▁bother	-11.391
▁WikiLeaks	-11.3912
39	-11.3913
▁deployment	-11.3913
uch	-11.3916
▁Turner	-11.3917
▁Software	-11.3917
▁ft	-11.3918
▁critic	-11.3918
▁slip	-11.392
▁shifted	-11.3921
▁financing	-11.3922
41	-11.3922
▁bears	-11.3922
▁Milwaukee	-11.3923
▁meets	-11.3923
▁beneficial	-11.3923
▁embedded	-11.3923
▁punch	-11.3924
GA	-11.3926
▁1981	-11.3926
▁Wind	-11.3928
▁visa	-11.3928
▁offset	-11.3936
▁cycling	-11.3937
NA	-11.3937
▁thereby	-11.394
▁Soon	-11.394
▁pleaded	-11.3941
▁Marco	-11.3943
▁waited	-11.3945
▁Classic	-11.3947
▁wishes	-11.3949
▁comply	-11.395
▁Computer	-11.3951
▁Highway	-11.3952
▁unity	-11.3952
▁actress	-11.3953
▁Member	-11.3953
▁trucks	-11.3954
▁gray	-11.3956
▁Bradley	-11.3956
▁NPR	-11.3956
▁Indians	-11.3958
oo	-11.396
backed	-11.3967
▁lean	-11.3969
▁drought	-11.3972
.[7]	-11.3973
▁tables	-11.3975
▁beloved	-11.3976
▁viral	-11.3977
mate	-11.3979
open	-11.398
▁lit	-11.3982
▁Harrison	-11.3983
▁casting	-11.3985
▁sponsored	-11.3986
power	-11.3986
▁Better	-11.399
▁Glenn	-11.3994
AT	-11.3995
▁Karl	-11.3995
▁Ru	-11.3997
▁Lin	-11.3997
▁Joined	-11.4001
▁confrontation	-11.4003
▁partisan	-11.4004
ew	-11.4005
▁tab	-11.4006
▁workforce	-11.4006
take	-11.4007
site	-11.4007
▁1:	-11.4009
▁anchor	-11.401
user	-11.401
▁Des	-11.401
▁indicating	-11.4013
▁commissioner	-11.4013
▁evident	-11.4014
▁incentives	-11.4018
▁barrier	-11.4018
▁READ	-11.4024
▁61	-11.4025
▁fitness	-11.4025
▁kernel	-11.4026
▁successor	-11.4027
▁drops	-11.4028
▁urging	-11.403
▁Stein	-11.4031
▁meantime	-11.4031
▁Connecticut	-11.4033
▁debates	-11.4034
▁Current	-11.4035
▁trace	-11.4037
▁Ju	-11.4041
.[8]	-11.4042
▁excitement	-11.4042
▁counting	-11.4048
▁Server	-11.4051
▁profound	-11.4052
▁ethical	-11.4052
▁bedroom	-11.4054
▁barriers	-11.4055
specific	-11.4055
▁Metal	-11.4056
mat	-11.4056
▁Lisa	-11.4057
▁Reed	-11.4058
▁Ronald	-11.406
div	-11.406
▁temporarily	-11.4061
▁planets	-11.4061
▁cu	-11.4063
▁triple	-11.4065
▁tourists	-11.4065
▁Chapter	-11.407
rick	-11.4071
word	-11.4072
▁conclude	-11.4072
▁Cuban	-11.4072
▁aftermath	-11.4074
▁Hide	-11.4075
▁corresponding	-11.4075
▁dump	-11.4075
▁68	-11.4078
▁Color	-11.408
oli	-11.408
boy	-11.408
▁photograph	-11.408
▁Race	-11.4081
▁interference	-11.4083
ify	-11.4084
▁CS	-11.4085
▁frozen	-11.4085
▁Put	-11.4085
43	-11.4086
▁garage	-11.4086
TO	-11.4086
▁screens	-11.4087
▁passionate	-11.4087
▁dose	-11.4087
08	-11.4088
▁freely	-11.409
President	-11.409
ene	-11.4091
▁believing	-11.4091
▁Islamist	-11.4091
▁succeeded	-11.4092
▁lobbying	-11.4093
▁Brussels	-11.4095
▁Hand	-11.4096
▁Nixon	-11.4101
las	-11.4104
▁Solar	-11.4106
▁probability	-11.4107
▁shed	-11.411
▁Double	-11.4111
hal	-11.4117
▁silly	-11.4119
▁MMA	-11.4122
funded	-11.4123
▁royal	-11.4124
PL	-11.4124
▁Enterprise	-11.4124
▁immigrant	-11.4125
▁spare	-11.4125
▁lyrics	-11.4125
▁editors	-11.4126
▁Woman	-11.4126
29	-11.4127
▁burst	-11.4129
▁Rs	-11.4129
▁DNC	-11.4129
▁Saints	-11.413
68	-11.4135
0.0	-11.4135
▁flesh	-11.4136
▁structural	-11.4138
▁sequel	-11.4138
pers	-11.4139
▁Stan	-11.4139
▁halt	-11.4139
▁Arctic	-11.4139
▁traditionally	-11.4141
▁Say	-11.4143
▁Drug	-11.4143
vert	-11.4145
▁Forces	-11.4145
▁regulate	-11.4146
▁poly	-11.4148
Even	-11.415
▁assuming	-11.415
▁accountable	-11.4151
▁collapsed	-11.4151
▁habits	-11.4152
▁po	-11.4152
▁Biden	-11.4152
Who	-11.4153
▁Updated	-11.4153
▁heaven	-11.4153
▁boyfriend	-11.4158
-15	-11.4158
▁bottles	-11.4158
▁styles	-11.4163
▁Sand	-11.4164
▁bitter	-11.4165
▁touchdown	-11.4166
▁proceed	-11.4167
▁);	-11.4168
▁Clean	-11.4168
▁Vo	-11.4168
▁Bra	-11.4169
…”	-11.4169
48	-11.417
▁Century	-11.4172
▁lifted	-11.4175
▁Chrome	-11.4176
▁suspicious	-11.418
▁Edge	-11.4181
▁Operation	-11.4181
▁0.5	-11.4182
▁Sox	-11.4183
▁Study	-11.4185
▁directions	-11.4193
bot	-11.4193
burn	-11.4193
▁1967	-11.4195
▁Studios	-11.4196
▁introducing	-11.4198
▁inclusion	-11.4198
▁Half	-11.4198
▁magnetic	-11.4199
3,	-11.4199
▁investor	-11.42
▁Puerto	-11.4201
▁width	-11.4201
▁hub	-11.4204
nic	-11.4206
▁breathing	-11.4206
▁juice	-11.421
▁SS	-11.4212
▁Tre	-11.4212
ending	-11.4217
▁courage	-11.4217
▁15-	-11.4217
]"	-11.4219
nick	-11.4219
▁elaborate	-11.4219
▁template	-11.4225
▁powder	-11.4226
▁Cu	-11.4227
five	-11.4228
▁CBC	-11.4232
▁yard	-11.4234
▁parliamentary	-11.4234
case	-11.4236
▁destroying	-11.4237
▁autonomous	-11.424
▁Jacob	-11.424
▁invite	-11.4241
wise	-11.4242
▁diagnosed	-11.4242
▁wondered	-11.4247
oni	-11.4247
▁preference	-11.4247
▁headline	-11.4248
▁emotion	-11.425
▁infected	-11.425
-11	-11.4252
▁tribute	-11.4252
del	-11.4253
▁magnitude	-11.4253
▁prohibited	-11.4254
zy	-11.4257
group	-11.426
▁FDA	-11.4264
▁Je	-11.4265
▁airline	-11.4265
vel	-11.4266
▁Learn	-11.4266
▁Getting	-11.4271
▁Print	-11.4271
▁cleaning	-11.4274
▁Indonesia	-11.4276
▁twin	-11.4279
▁incentive	-11.4279
▁variation	-11.428
▁Amy	-11.4281
▁Members	-11.4287
▁trauma	-11.4287
▁Fig	-11.4288
avi	-11.4288
▁laser	-11.429
▁generous	-11.4291
▁BE	-11.4295
▁rendering	-11.4298
36	-11.43
▁Girl	-11.43
▁athletic	-11.4302
▁trap	-11.4304
▁transformed	-11.4304
▁tragic	-11.4306
▁sued	-11.4306
▁editing	-11.4311
▁unveiled	-11.4311
▁feeding	-11.4312
▁2004,	-11.4316
▁accommodate	-11.4317
▁separation	-11.4317
▁breakdown	-11.4318
lit	-11.432
▁Gates	-11.4324
his	-11.4325
▁gravity	-11.4329
▁magical	-11.4331
▁Pokémon	-11.4332
▁Fisher	-11.4334
▁inch	-11.4335
▁organisations	-11.4336
▁Text	-11.4337
tax	-11.434
▁rocks	-11.4342
powered	-11.4345
▁facilitate	-11.4349
ika	-11.4351
▁mate	-11.4354
▁Snow	-11.4354
▁180	-11.4358
▁twist	-11.4359
▁hypothesis	-11.4359
▁societies	-11.4359
▁loyal	-11.436
▁organize	-11.4363
▁Nobody	-11.4364
▁ver	-11.4366
▁vertical	-11.4366
▁compiled	-11.4367
▁threaten	-11.4374
▁verdict	-11.4375
▁Jennifer	-11.4377
▁Kra	-11.4379
▁Wil	-11.438
▁TD	-11.4381
nar	-11.4381
▁sheriff	-11.4382
vy	-11.4384
▁intentions	-11.4384
▁determination	-11.4384
▁edited	-11.4385
▁helicopter	-11.4387
▁Making	-11.4388
▁screaming	-11.439
▁1984	-11.439
▁suspicion	-11.439
▁testified	-11.4391
▁feared	-11.4394
▁premiere	-11.4395
▁doubled	-11.4398
▁romantic	-11.44
44	-11.4401
▁traits	-11.4402
▁pretend	-11.4402
▁farms	-11.4402
▁conservation	-11.4404
▁median	-11.4404
▁24-	-11.4407
▁masses	-11.4409
IL	-11.4409
ben	-11.441
▁dirt	-11.441
▁Fall	-11.4412
▁(18	-11.4416
▁Memorial	-11.442
▁retailers	-11.4421
▁grain	-11.4424
▁Tra	-11.4426
▁BP	-11.4426
gle	-11.4426
▁Lebanon	-11.4429
▁recruiting	-11.443
▁Kit	-11.4431
▁routinely	-11.4432
▁Target	-11.4432
▁admits	-11.4435
▁justified	-11.4436
▁NA	-11.4438
▁dubbed	-11.4441
▁Planned	-11.4441
▁dish	-11.4444
▁1920	-11.4446
ving	-11.4448
▁serial	-11.4449
▁disappointing	-11.4451
▁Bears	-11.4453
▁governing	-11.4457
▁binding	-11.4461
▁Quick	-11.4463
ches	-11.4464
▁sizes	-11.4466
▁quo	-11.4466
▁bearing	-11.4467
▁Carr	-11.4467
53	-11.4469
▁labels	-11.4472
gu	-11.4473
tte	-11.4474
ec	-11.4475
pass	-11.4477
▁wallet	-11.4477
date	-11.4484
▁continent	-11.4487
▁arc	-11.4489
▁alternatives	-11.449
▁(7	-11.4492
matic	-11.4492
▁aging	-11.4498
▁Son	-11.4498
aries	-11.4498
▁Angel	-11.45
Up	-11.4503
▁Sta	-11.4503
▁gifts	-11.4503
▁licensed	-11.4504
pan	-11.4505
▁attitudes	-11.4506
▁commented	-11.4508
▁Calgary	-11.4508
▁marketplace	-11.451
▁Mat	-11.4511
▁Survey	-11.4514
▁affecting	-11.4515
any	-11.4515
▁Help	-11.4519
▁Bros	-11.452
tain	-11.4522
▁teens	-11.4522
▁credibility	-11.4523
▁purely	-11.4526
▁Sciences	-11.4527
▁encountered	-11.4528
▁buses	-11.4531
▁buttons	-11.4532
▁encryption	-11.4536
27	-11.4537
▁Superman	-11.4538
▁honour	-11.4539
▁resignation	-11.454
▁isolation	-11.4542
▁adaptation	-11.4547
"":	-11.4547
▁Mor	-11.4547
ica	-11.455
▁mothers	-11.4551
▁Parenthood	-11.4551
▁patrol	-11.4554
▁Bobby	-11.4554
▁mentally	-11.4554
▁Wallace	-11.4554
▁connecting	-11.4555
▁aired	-11.4556
▁Comics	-11.4557
▁Warriors	-11.4558
▁Block	-11.4563
93	-11.4565
ert	-11.4569
▁organizing	-11.457
bert	-11.4571
▁]"	-11.4572
driven	-11.4572
▁psychology	-11.4573
▁casual	-11.4575
76	-11.4576
▁Belgium	-11.4577
government	-11.4579
▁endorsed	-11.4581
CH	-11.4582
▁foul	-11.4586
bury	-11.4586
▁receives	-11.4587
front	-11.4589
▁wildlife	-11.4589
▁***	-11.4589
▁fires	-11.459
▁rage	-11.4591
▁farming	-11.4594
▁deploy	-11.4597
▁hearts	-11.4597
ona	-11.46
▁dioxide	-11.46
▁cultures	-11.4602
fall	-11.4603
▁authorized	-11.4603
▁flags	-11.4604
▁Original	-11.4606
▁warnings	-11.4612
▁inmates	-11.4614
ole	-11.4616
▁slower	-11.4617
▁Ltd	-11.462
▁purchases	-11.462
▁sooner	-11.4621
▁glance	-11.4622
▁REUTERS	-11.4623
▁NC	-11.4625
.[9]	-11.4628
09	-11.4631
▁champions	-11.4633
ME	-11.4633
View	-11.4633
Every	-11.4636
▁audit	-11.4637
▁Mueller	-11.4637
▁adequate	-11.4639
▁withdraw	-11.4642
▁BJP	-11.4643
▁Qaeda	-11.4644
▁11.	-11.4644
ux	-11.4645
▁hash	-11.4645
▁aggression	-11.4647
▁Edwards	-11.4649
▁indigenous	-11.465
▁Islands	-11.465
▁plea	-11.4652
▁Sol	-11.4653
▁absurd	-11.4658
▁teenage	-11.466
using	-11.4661
▁Speed	-11.4661
hit	-11.4661
▁bankruptcy	-11.4662
▁negotiate	-11.4662
▁interactive	-11.4663
▁---	-11.4664
ther	-11.4665
▁preliminary	-11.4665
▁metres	-11.4666
▁licensing	-11.4668
▁founding	-11.467
▁reasoning	-11.4672
▁76	-11.4672
▁arriving	-11.4675
▁advances	-11.4675
▁Ebola	-11.4675
cu	-11.4678
▁comparable	-11.4678
gal	-11.4679
▁Song	-11.4682
Na	-11.4683
bel	-11.4683
sta	-11.4685
▁Challenge	-11.4687
▁Dublin	-11.4688
▁1972	-11.4689
▁Michelle	-11.4694
▁builds	-11.4695
black	-11.4695
▁proceedings	-11.4696
▁convenient	-11.4697
▁sends	-11.4697
▁Shin	-11.4697
din	-11.4699
▁pie	-11.4699
▁branches	-11.4702
▁civilization	-11.4703
▁stocks	-11.4705
▁Griffin	-11.4706
▁WR	-11.4707
▁lengthy	-11.4708
▁alarm	-11.4709
ien	-11.471
▁clinic	-11.4713
▁appeals	-11.4715
▁Gu	-11.4718
▁celebrity	-11.472
▁accurately	-11.472
▁weakness	-11.4722
▁matching	-11.4724
od	-11.4725
▁query	-11.4725
▁Argentina	-11.4726
74	-11.4726
▁Ok	-11.4727
▁lacking	-11.4727
bat	-11.4728
▁Palace	-11.4731
▁pub	-11.4731
:15	-11.4735
▁Goldman	-11.4737
▁Bennett	-11.4739
▁marry	-11.4741
handed	-11.4741
▁Newton	-11.4744
▁QB	-11.4745
ering	-11.4747
▁attacker	-11.4749
▁sensors	-11.4751
▁offshore	-11.4752
▁advantages	-11.4753
▁Muhammad	-11.4753
▁contents	-11.4753
▁Pack	-11.4758
▁nominated	-11.476
▁scratch	-11.4761
Today	-11.4762
▁invitation	-11.4762
▁filming	-11.4763
▁sink	-11.4766
▁creators	-11.4771
author	-11.4772
▁boycott	-11.4772
people	-11.4775
▁dumb	-11.4776
▁Broncos	-11.4777
Here	-11.4777
▁Albert	-11.4778
▁Mode	-11.478
▁raped	-11.4782
▁GMT	-11.4783
▁Gallery	-11.4786
▁Silicon	-11.4787
▁analyze	-11.4787
▁scam	-11.4793
▁Mid	-11.4793
▁Budget	-11.4794
▁hike	-11.4795
▁generating	-11.4796
▁$9	-11.4797
ira	-11.4798
▁thirty	-11.48
▁Em	-11.4801
▁warfare	-11.4803
bank	-11.4808
▁Brooks	-11.4812
▁willingness	-11.4812
▁comparing	-11.4812
▁boring	-11.4813
▁classical	-11.4813
▁fabric	-11.4814
▁Bishop	-11.4816
▁renewed	-11.4816
▁Ri	-11.4821
▁ADVERTISEMENT	-11.4822
▁“[	-11.4822
▁Stay	-11.4823
▁Travel	-11.4825
();	-11.4828
▁sing	-11.4828
▁consultant	-11.4828
▁jumping	-11.4828
▁apology	-11.4828
▁Join	-11.4833
▁outright	-11.4836
▁acres	-11.4836
▁delicious	-11.4838
▁Tel	-11.4838
▁throws	-11.4841
itch	-11.4842
▁lasted	-11.4846
▁eliminated	-11.4846
bus	-11.4847
▁Rachel	-11.485
▁accounting	-11.4851
step	-11.4859
▁12.	-11.4859
ae	-11.4861
▁observe	-11.4862
▁pilots	-11.4867
▁Movement	-11.4867
▁bare	-11.4868
▁decreased	-11.4869
▁HP	-11.487
▁statue	-11.487
▁implementing	-11.4871
▁gamers	-11.4875
▁exports	-11.4876
▁disclose	-11.4877
▁SD	-11.4877
▁enhanced	-11.4878
▁decides	-11.4878
▁Truth	-11.4879
▁Guy	-11.4881
▁liberals	-11.4882
dom	-11.4882
▁Create	-11.4882
aki	-11.4883
oc	-11.4883
▁exhibit	-11.4883
▁villages	-11.4886
tes	-11.4887
▁territories	-11.4888
IM	-11.489
▁purchasing	-11.4891
▁severely	-11.4893
▁bite	-11.4894
▁creativity	-11.4898
▁brave	-11.4898
▁Gil	-11.49
▁generic	-11.49
▁firmly	-11.49
sey	-11.4905
▁midnight	-11.4905
ora	-11.4905
Po	-11.4907
lot	-11.4908
▁invented	-11.491
▁wooden	-11.4911
▁lap	-11.4911
▁mount	-11.4911
▁Additional	-11.4912
Last	-11.4916
▁cocaine	-11.492
▁problematic	-11.4922
nn	-11.4924
lor	-11.493
ding	-11.493
▁friendship	-11.4931
ami	-11.4932
▁temple	-11.4932
▁Castle	-11.4932
ory	-11.4936
▁Know	-11.4937
▁Holmes	-11.4937
▁secrets	-11.494
▁Map	-11.4942
▁grows	-11.4942
▁traditions	-11.4943
controlled	-11.4944
tle	-11.4944
▁Fame	-11.4947
▁wrestling	-11.4947
str	-11.4947
▁Billy	-11.4952
▁practically	-11.4952
▁intersection	-11.4953
▁Qatar	-11.4956
▁healing	-11.4958
▁appealing	-11.496
▁translated	-11.4961
ans	-11.4961
ual	-11.4965
▁5,000	-11.4967
▁Either	-11.4968
▁RAM	-11.4969
▁Kar	-11.4971
▁PAC	-11.4972
izer	-11.4973
▁thoroughly	-11.4976
▁imp	-11.4976
▁Stock	-11.4979
nal	-11.498
▁Der	-11.498
▁fluid	-11.498
▁Assistant	-11.4981
▁Tribune	-11.4981
▁Bal	-11.4982
Mr	-11.4984
▁consumed	-11.4987
▁caution	-11.499
▁precedent	-11.499
▁tribal	-11.4991
san	-11.4992
▁demographic	-11.4993
▁Episode	-11.4998
▁statistical	-11.4999
▁enables	-11.5001
▁shy	-11.5001
▁likelihood	-11.5003
▁Defence	-11.5003
https	-11.5004
▁Ce	-11.5005
▁rushing	-11.5006
▁draws	-11.501
▁von	-11.5015
▁steep	-11.5017
ening	-11.5018
▁admission	-11.502
▁averaged	-11.5022
▁navigate	-11.5023
▁solidarity	-11.5023
Ex	-11.5023
br	-11.5026
ical	-11.5026
▁1973	-11.5027
▁shifting	-11.5027
▁hungry	-11.5028
▁diagnosis	-11.5029
▁permits	-11.5032
▁Representatives	-11.5033
Ho	-11.5033
bad	-11.5035
▁hill	-11.5035
▁anime	-11.5038
▁Deal	-11.5038
▁Raiders	-11.5039
▁Palin	-11.5041
▁directory	-11.5045
▁Years	-11.5045
▁abandon	-11.5046
▁crying	-11.5046
▁nodes	-11.5047
ome	-11.5048
▁1940	-11.5051
▁counted	-11.5051
▁max	-11.5051
▁Regional	-11.5052
degree	-11.5057
▁Johnny	-11.5059
▁tongue	-11.5061
▁specialist	-11.5062
ale	-11.5063
▁Corbyn	-11.5064
▁Bat	-11.5065
print	-11.5065
ological	-11.5066
▁Need	-11.5067
▁costly	-11.5068
▁18-	-11.5069
▁lease	-11.507
▁texts	-11.507
▁monsters	-11.5071
▁corporation	-11.5072
▁subscription	-11.5073
best	-11.5073
▁crashed	-11.5074
yes	-11.5076
▁educated	-11.5076
▁Lucas	-11.508
▁Upon	-11.5081
EC	-11.5087
▁Koch	-11.509
▁wheels	-11.509
▁throat	-11.509
▁precious	-11.5091
▁Transportation	-11.5091
▁rental	-11.5092
▁Hockey	-11.5092
▁bloody	-11.5093
▁Ste	-11.5093
RO	-11.5094
▁GB	-11.5094
▁intake	-11.5095
▁substitute	-11.5095
▁fool	-11.5098
▁holy	-11.5099
▁bass	-11.51
▁Ger	-11.5104
▁disk	-11.5109
▁1.0	-11.511
▁partial	-11.511
▁Legal	-11.5113
▁trafficking	-11.5113
▁underway	-11.5113
▁Mix	-11.5114
▁Montana	-11.5114
▁Kate	-11.5116
▁Globe	-11.5117
▁locker	-11.5119
▁supportive	-11.5119
▁MO	-11.5119
▁Beast	-11.5122
▁maker	-11.5124
ato	-11.5124
800	-11.5125
▁memorial	-11.5126
▁loving	-11.5126
▁Juan	-11.513
▁Reform	-11.513
▁1978	-11.5133
▁1976	-11.5134
▁3.5	-11.5135
▁wherever	-11.5136
CS	-11.5138
ass	-11.5142
▁ne	-11.5143
ened	-11.5143
▁skilled	-11.5146
▁File	-11.5147
▁Less	-11.5149
uff	-11.5151
▁awkward	-11.5152
▁Nexus	-11.5152
▁hung	-11.5155
▁escaped	-11.5158
▁Nearly	-11.5159
▁WATCH	-11.516
▁regards	-11.516
▁Carlos	-11.5162
ants	-11.5163
▁rubber	-11.5163
gram	-11.5166
ture	-11.5167
▁counterparts	-11.5167
▁failures	-11.5168
▁possess	-11.517
put	-11.5171
▁1986	-11.5171
▁Word	-11.5173
▁broadband	-11.5175
▁infamous	-11.5176
72	-11.5177
▁obligation	-11.5181
▁Fi	-11.5182
▁pause	-11.5185
bal	-11.5186
▁tactical	-11.5187
▁fame	-11.5187
hill	-11.5189
▁Wii	-11.519
▁3,000	-11.5191
▁Bear	-11.5193
▁construct	-11.5193
▁vegetables	-11.5193
▁Give	-11.5194
▁avoiding	-11.5194
▁6-	-11.5195
▁Vikings	-11.5195
▁limiting	-11.5196
▁premier	-11.5197
▁Mer	-11.5199
▁Sho	-11.5203
▁laughing	-11.5204
▁independently	-11.5208
▁cute	-11.521
lee	-11.5212
▁Swift	-11.5212
eo	-11.5214
▁medication	-11.5215
also	-11.5217
▁Fight	-11.5217
▁evolve	-11.5218
▁photographer	-11.5218
▁Spencer	-11.5218
▁winds	-11.5219
▁understands	-11.5219
▁Homeland	-11.522
__	-11.5221
▁700	-11.5223
▁Bru	-11.5223
▁3.0	-11.5223
▁Hy	-11.5224
▁3)	-11.5224
▁intend	-11.5225
FC	-11.5228
▁NDP	-11.523
▁Arabic	-11.523
▁Rev	-11.523
AD	-11.5231
sub	-11.5232
▁diabetes	-11.5234
pack	-11.5235
▁hence	-11.5235
hop	-11.5237
▁establishing	-11.5237
▁Mason	-11.5238
▁insane	-11.524
▁disc	-11.5242
EA	-11.5243
yer	-11.5245
▁swimming	-11.5246
pound	-11.5248
pic	-11.5254
▁sustain	-11.5254
▁females	-11.5255
▁fundraising	-11.5257
[1]	-11.5258
▁Beer	-11.5259
▁Tory	-11.526
▁Mis	-11.5264
▁continuous	-11.5267
worth	-11.5267
▁Lab	-11.527
▁Fri	-11.5271
▁UPDATE	-11.5272
responsibilities	-11.5274
▁outdoor	-11.5274
▁2001,	-11.5275
▁Marcus	-11.5278
cor	-11.5278
▁Mini	-11.5278
▁Shu	-11.5279
zen	-11.528
▁garbage	-11.528
▁sounded	-11.528
▁musicians	-11.5281
▁worn	-11.5281
▁outer	-11.5282
▁neuro	-11.5286
▁privately	-11.5286
pad	-11.5287
▁pile	-11.5287
cost	-11.529
▁crown	-11.5292
92	-11.5293
AN	-11.5294
▁Breitbart	-11.5296
▁donate	-11.5297
▁brains	-11.5298
▁contacts	-11.5298
wi	-11.5301
▁literary	-11.5303
ock	-11.5305
▁Attack	-11.5305
▁Officials	-11.5307
▁misleading	-11.5309
▁correspondent	-11.531
zu	-11.5311
▁Apparently	-11.5311
▁scare	-11.5313
▁cure	-11.5317
▁Denmark	-11.5317
▁billionaire	-11.5317
NO	-11.5317
▁shoulders	-11.5319
▁darkness	-11.532
▁</	-11.5323
▁inappropriate	-11.5324
▁solved	-11.5324
58	-11.5325
▁Pet	-11.5326
▁Boeing	-11.5327
▁74	-11.5327
▁straightforward	-11.5333
▁Thailand	-11.5334
56	-11.5335
▁imagined	-11.5336
ye	-11.5337
ets	-11.5337
….	-11.5338
47	-11.5341
▁expose	-11.5342
▁insist	-11.5346
▁daughters	-11.5346
▁Rush	-11.5347
▁1988	-11.5347
▁predictions	-11.5349
▁Tehran	-11.535
▁Dennis	-11.535
▁exceptions	-11.5355
▁Bryan	-11.5355
▁Mormon	-11.5356
▁decks	-11.5356
▁vessel	-11.5356
ult	-11.5358
▁reign	-11.5358
▁afterwards	-11.536
▁relating	-11.5361
ions	-11.5361
▁unlock	-11.5361
▁1975	-11.5363
▁kingdom	-11.5363
▁71	-11.5363
▁Creek	-11.5364
▁buffer	-11.5365
▁glimpse	-11.5366
▁costume	-11.5368
▁desperately	-11.5368
▁apologize	-11.5369
▁Select	-11.5369
77	-11.5369
olo	-11.5372
▁accidentally	-11.5374
▁freeze	-11.5374
▁cease	-11.5375
▁iTunes	-11.5376
▁69	-11.5378
▁sheer	-11.5379
▁GPS	-11.5381
▁mu	-11.5383
▁1985	-11.5385
▁fiber	-11.5386
BA	-11.5386
:45	-11.5387
aya	-11.5388
▁Cut	-11.5392
NET	-11.5392
▁ST	-11.5392
MC	-11.5393
▁unlimited	-11.5394
▁celebrating	-11.5396
▁switched	-11.54
▁Record	-11.5401
▁forums	-11.5401
▁directors	-11.5402
▁meals	-11.5402
▁Julian	-11.5403
▁detection	-11.5404
Un	-11.5405
jan	-11.5406
▁CR	-11.5406
EN	-11.5407
▁abused	-11.5407
▁si	-11.5408
▁leaks	-11.5411
▁Butler	-11.5412
lia	-11.5413
▁genius	-11.5414
▁behave	-11.5414
▁pour	-11.5415
iff	-11.5415
through	-11.5416
▁queue	-11.5416
▁1987	-11.5416
▁origins	-11.5418
Because	-11.5419
▁Com	-11.5421
▁assassination	-11.5421
▁Self	-11.5421
▁EP	-11.5421
▁Researchers	-11.5423
▁MVP	-11.5425
Are	-11.5427
▁gallery	-11.5427
og	-11.5428
▁Prior	-11.5429
▁16-	-11.543
▁embassy	-11.543
▁grace	-11.543
▁relate	-11.543
][	-11.5433
▁navigation	-11.5433
▁dated	-11.5437
▁1979	-11.5439
rat	-11.5439
▁artwork	-11.5441
▁wings	-11.5441
▁absent	-11.5443
▁frustrating	-11.5443
▁tube	-11.5445
▁rankings	-11.5451
67	-11.5452
▁cancelled	-11.5454
▁{\	-11.5454
▁puzzle	-11.5454
▁locally	-11.5456
▁null	-11.5456
▁leather	-11.546
▁73	-11.5461
AR	-11.5463
▁linebacker	-11.5466
▁82	-11.5466
▁effectiveness	-11.5466
▁Students	-11.5468
▁render	-11.5469
▁differ	-11.547
▁Imperial	-11.547
press	-11.5471
RA	-11.5471
sp	-11.5472
sson	-11.5473
▁dancing	-11.5474
▁enthusiasm	-11.5477
▁declining	-11.5477
makers	-11.5477
▁recommendation	-11.5481
▁Invalid	-11.5481
▁folder	-11.5481
▁observers	-11.5482
▁78	-11.5483
▁ammunition	-11.549
▁Richmond	-11.5491
▁blank	-11.5491
▁filmed	-11.5492
nis	-11.5496
load	-11.5499
5)	-11.5499
lip	-11.5501
▁assumptions	-11.5501
State	-11.5502
▁confront	-11.5508
▁forming	-11.5508
▁listing	-11.551
▁Drew	-11.551
▁::	-11.5515
▁closure	-11.5515
.[10]	-11.5516
▁spark	-11.5517
▁mounted	-11.5518
ska	-11.552
oz	-11.5521
lam	-11.5521
▁wounds	-11.5524
too	-11.5524
▁DA	-11.5524
▁felony	-11.5526
▁refusal	-11.5528
▁integrate	-11.553
▁fundamentally	-11.5531
▁compiler	-11.5532
▁1977	-11.5533
▁MB	-11.5533
▁Spurs	-11.5534
▁disappointment	-11.5535
▁lighter	-11.5535
▁skull	-11.5538
store	-11.5539
▁uncertain	-11.5539
▁5%	-11.5539
▁Andre	-11.554
▁pants	-11.5541
▁GPU	-11.5543
▁inevitably	-11.5545
▁pitcher	-11.5549
▁classroom	-11.5551
▁shifts	-11.5552
▁governance	-11.5552
door	-11.5553
▁searches	-11.5554
▁Content	-11.5555
▁cage	-11.5557
________________	-11.5559
▁striker	-11.5563
▁Bulls	-11.5563
▁UC	-11.5565
oon	-11.5568
say	-11.5568
▁Politics	-11.5569
▁Tweet	-11.5569
hl	-11.5571
▁entries	-11.5572
.[11]	-11.5573
tag	-11.5573
▁arranged	-11.5576
▁compatible	-11.5577
▁cave	-11.5578
tier	-11.5578
▁formerly	-11.5579
▁outbreak	-11.5581
▁specified	-11.5582
▁leagues	-11.5582
▁eighth	-11.5582
▁toys	-11.5582
▁2007.	-11.5584
▁expressing	-11.5584
▁courses	-11.5585
▁Clarke	-11.5586
▁lesser	-11.5586
weight	-11.5588
▁insists	-11.5588
cell	-11.5591
▁Barbara	-11.5593
four	-11.5594
▁shaped	-11.5594
▁Fourth	-11.5594
▁priest	-11.5597
▁Rico	-11.5598
▁Mag	-11.56
▁13.	-11.56
▁occurring	-11.5601
▁distribute	-11.5602
▁Rain	-11.5602
▁bipartisan	-11.5602
▁climbing	-11.5602
▁$25	-11.5604
▁Laura	-11.5606
▁relies	-11.5607
▁overhaul	-11.5608
▁skeptical	-11.5611
▁Tree	-11.5611
▁smartphones	-11.5613
▁Nathan	-11.5614
▁treatments	-11.5615
▁puck	-11.5621
▁Workers	-11.5624
!!!	-11.5624
▁ignoring	-11.5626
6)	-11.5628
▁lawsuits	-11.5629
▁Hindu	-11.5632
▁pump	-11.5632
▁whilst	-11.5633
▁aide	-11.5634
▁Palestine	-11.5634
▁bull	-11.5635
▁spotlight	-11.5638
tive	-11.5639
▁Resources	-11.5641
▁foster	-11.5642
▁outlet	-11.5643
▁mature	-11.5643
▁accountability	-11.5646
▁disorders	-11.5647
▁novels	-11.5647
▁oh	-11.5649
▁Den	-11.5649
Most	-11.5649
▁laboratory	-11.5651
▁snap	-11.5651
▁publishers	-11.5651
▁Flight	-11.5652
82	-11.5654
arm	-11.5654
act	-11.5655
▁mild	-11.5655
elli	-11.5656
▁reasonably	-11.5657
▁beers	-11.5658
▁chemistry	-11.5658
▁revised	-11.5663
▁Systems	-11.5665
▁cooling	-11.5665
▁adjusted	-11.5667
▁Garcia	-11.5668
▁freshman	-11.567
▁sh	-11.567
shirt	-11.5671
▁Min	-11.5672
▁considerably	-11.5672
▁anonymity	-11.5674
roll	-11.5675
▁delays	-11.5676
▁GP	-11.5677
▁den	-11.5677
▁recalls	-11.5678
▁texture	-11.5679
▁ho	-11.5679
▁nights	-11.5679
▁Seahawks	-11.5681
▁MLB	-11.5682
▁frankly	-11.5683
▁historian	-11.5684
▁confusing	-11.5685
▁loyalty	-11.5689
▁scan	-11.5691
▁77	-11.5696
1,000	-11.5698
▁Zero	-11.5699
▁altered	-11.5701
▁underneath	-11.5702
▁Kirk	-11.5702
[2]	-11.5702
SL	-11.5706
thirds	-11.5706
▁touchdowns	-11.5706
▁stepping	-11.5707
▁risen	-11.5709
▁Liberals	-11.571
▁Index	-11.5711
▁jurisdiction	-11.5712
▁salaries	-11.5712
6,000	-11.5715
▁mill	-11.5715
▁Planet	-11.5717
▁2003,	-11.5718
▁mph	-11.5719
84	-11.5719
▁agrees	-11.5719
▁Met	-11.5722
▁MC	-11.5722
▁MIT	-11.5724
▁disclosed	-11.5724
63	-11.5727
▁$500	-11.573
rus	-11.573
-16	-11.5731
▁plugin	-11.5732
▁denying	-11.5733
37	-11.5738
▁bailout	-11.5742
▁sci	-11.5742
▁pound	-11.5744
▁prescription	-11.5744
▁clash	-11.5745
▁Sport	-11.5746
▁Analysis	-11.5747
▁PT	-11.5749
▁flowers	-11.5751
▁shutdown	-11.5752
▁shower	-11.5752
4,000	-11.5753
▁Jar	-11.5754
▁arrangements	-11.5757
▁sectors	-11.5759
▁besides	-11.576
▁battlefield	-11.5764
▁stroke	-11.5764
▁grey	-11.5765
▁Scientists	-11.5766
▁Complete	-11.5766
▁Together	-11.5768
▁institutional	-11.5769
▁float	-11.5772
▁pray	-11.5772
▁Bon	-11.5774
▁contractors	-11.5774
Or	-11.5777
▁qualities	-11.5778
7,000	-11.5779
▁disappear	-11.5783
▁feat	-11.5784
▁Powell	-11.5785
▁Leon	-11.5787
▁substantially	-11.5787
▁newest	-11.5788
▁tier	-11.5793
▁duo	-11.5795
▁Samuel	-11.5796
een	-11.5797
used	-11.5802
▁calculate	-11.5805
lis	-11.5808
▁defining	-11.5808
▁Ghost	-11.5808
▁dignity	-11.5809
▁cargo	-11.5809
▁fancy	-11.5814
UTC	-11.5815
esh	-11.5815
▁deleted	-11.5816
▁adapted	-11.5816
▁recruit	-11.5819
▁negotiating	-11.582
▁Cost	-11.5823
▁Environment	-11.5827
▁matched	-11.583
▁strings	-11.583
▁ports	-11.5831
▁suits	-11.5831
▁Rams	-11.5832
▁modules	-11.5832
▁medal	-11.5834
▁CC	-11.5836
▁carriers	-11.5837
▁McCarthy	-11.5838
phone	-11.5838
▁Brothers	-11.584
wer	-11.5841
▁Wonder	-11.5842
▁leap	-11.5842
dic	-11.5843
91	-11.5844
▁sacred	-11.5844
▁genuinely	-11.5846
▁tribe	-11.5847
▁Mega	-11.5848
▁backlash	-11.5851
▁vague	-11.5852
piece	-11.5852
▁fuels	-11.5853
▁spectacular	-11.5854
▁heroin	-11.5855
▁Alice	-11.5856
▁playback	-11.5857
▁fare	-11.5857
▁gods	-11.5857
▁spray	-11.5857
color	-11.5858
▁strictly	-11.5864
til	-11.5866
rock	-11.5868
▁nurse	-11.5868
▁outfit	-11.5869
▁Task	-11.587
▁Birmingham	-11.5873
▁1.2	-11.5875
▁amateur	-11.5876
ox	-11.5878
story	-11.5878
▁unacceptable	-11.5879
DP	-11.5882
▁employ	-11.5884
▁considers	-11.5884
▁flu	-11.5885
risk	-11.5885
▁attributes	-11.5885
wall	-11.5886
06	-11.5889
▁united	-11.589
▁Eve	-11.589
▁sexuality	-11.5891
▁sponsor	-11.5891
78	-11.5892
▁rated	-11.5895
▁Bor	-11.5897
▁Neo	-11.5899
▁vulnerability	-11.5901
▁liver	-11.5903
▁blend	-11.5903
54	-11.5907
▁Born	-11.5911
▁Hit	-11.5911
mb	-11.5912
▁Kam	-11.5915
▁indictment	-11.5921
OL	-11.5922
▁USD	-11.5922
▁Gas	-11.5923
▁bikes	-11.5923
▁restrict	-11.5924
▁sisters	-11.5924
▁spite	-11.5924
▁grandfather	-11.5925
▁Fear	-11.5925
▁assembled	-11.5927
▁Nobel	-11.5928
▁colleges	-11.5929
▁grocery	-11.5932
▁String	-11.5934
nu	-11.5935
▁enabling	-11.5935
▁algorithms	-11.5936
2,000	-11.5939
▁speeches	-11.5939
▁Got	-11.5939
▁sovereignty	-11.5939
▁Baseball	-11.5943
▁Recently	-11.5944
▁Malaysia	-11.5944
▁tolerance	-11.5946
▁Panthers	-11.5947
▁paths	-11.5947
sum	-11.5947
35	-11.5947
▁01	-11.5948
▁Elsa	-11.5949
▁incumbent	-11.5953
▁obligations	-11.5953
▁drilling	-11.5954
▁Colin	-11.5955
▁Zi	-11.5957
▁0.2	-11.5957
▁Criminal	-11.5957
▁wrap	-11.5959
▁organizers	-11.5959
▁Med	-11.596
▁twitter	-11.5962
gra	-11.5964
▁exercises	-11.5964
interest	-11.5966
▁translate	-11.5968
▁predecessor	-11.5968
▁shipped	-11.5968
▁Actually	-11.5969
▁Victor	-11.5971
ug	-11.5971
▁911	-11.5972
uma	-11.5973
ui	-11.5976
▁epidemic	-11.5978
▁Picture	-11.5979
▁demonstrations	-11.598
▁photography	-11.5981
Qaeda	-11.5981
▁1969	-11.5982
▁extends	-11.5985
▁LLC	-11.5986
"">	-11.5986
▁Kin	-11.5988
▁automated	-11.5991
▁determining	-11.5992
▁restored	-11.5994
600	-11.5995
▁globally	-11.5999
▁malicious	-11.6003
▁measurements	-11.6003
▁sc	-11.6003
▁crowds	-11.6005
▁Thai	-11.6006
▁embraced	-11.6007
rb	-11.6009
▁Late	-11.6011
generation	-11.6012
▁Commerce	-11.6013
62	-11.6013
▁curb	-11.6013
▁hunger	-11.6014
▁prey	-11.6015
▁martial	-11.6016
▁grandmother	-11.6017
▁Hurricane	-11.6018
▁Stage	-11.6021
Over	-11.6026
▁Agreement	-11.6028
▁malware	-11.6031
▁teenagers	-11.6034
▁Privacy	-11.6034
▁Musk	-11.6035
▁coastal	-11.6037
▁guilt	-11.604
▁belongs	-11.6042
qu	-11.6045
▁misconduct	-11.6045
▁grasp	-11.6046
dr	-11.6046
▁Animal	-11.6047
▁40%	-11.6047
dimensional	-11.605
▁corners	-11.6052
▁charts	-11.6053
▁dangers	-11.6053
▁instruction	-11.6055
▁affiliate	-11.6055
▁Orthodox	-11.6056
▁retire	-11.6056
▁tuned	-11.6058
▁HR	-11.6059
▁vendors	-11.6061
▁cancel	-11.6061
▁clarity	-11.6063
▁mortality	-11.6064
**	-11.6064
▁Mitch	-11.6067
▁hint	-11.607
ila	-11.6071
▁Angela	-11.6071
▁Prof	-11.6071
▁cents	-11.6074
▁variations	-11.6076
▁toilet	-11.6076
standing	-11.6078
▁Regardless	-11.6078
▁Austria	-11.6079
▁Leave	-11.608
▁optional	-11.6081
ERS	-11.6082
▁Sandy	-11.6084
▁Starting	-11.6084
▁confronted	-11.6087
▁inspire	-11.6088
▁subscribing	-11.6088
▁batch	-11.6089
▁Comic	-11.609
▁slaves	-11.609
band	-11.6092
▁Socialist	-11.6093
▁Commander	-11.6093
▁Thunder	-11.6099
start	-11.6102
▁debris	-11.6103
▁shortage	-11.6104
uz	-11.6105
▁mosque	-11.6106
nor	-11.6107
▁Pete	-11.6107
▁suite	-11.6108
▁Kent	-11.6108
▁manages	-11.6109
▁physician	-11.611
▁absorb	-11.611
three	-11.6112
▁Immigration	-11.6113
▁tourism	-11.6114
Mar	-11.6115
▁philosophical	-11.6115
▁Wade	-11.6116
▁pays	-11.6116
▁Bin	-11.612
▁outlined	-11.6121
▁achieving	-11.6122
▁publications	-11.6124
▁retreat	-11.6126
▁Throughout	-11.6127
▁militant	-11.613
hen	-11.613
wick	-11.6132
▁interim	-11.6133
▁Zen	-11.6134
▁horizon	-11.6135
▁Germans	-11.6135
▁Xi	-11.6135
▁lasting	-11.614
▁mall	-11.614
▁artistic	-11.6141
▁hydrogen	-11.6143
guard	-11.6143
TS	-11.6143
▁readily	-11.6144
▁Trail	-11.6144
▁Bird	-11.6146
▁boats	-11.6146
▁showcase	-11.6149
TH	-11.615
▁permanently	-11.6151
fit	-11.6152
▁Foster	-11.6153
▁tricky	-11.6155
▁swap	-11.6158
Ba	-11.616
▁vessels	-11.616
▁disability	-11.6161
▁resign	-11.6161
ois	-11.6162
▁stealing	-11.6162
▁MD	-11.6163
▁spirits	-11.6166
▁Oak	-11.6167
late	-11.6167
▁casualties	-11.6167
▁Site	-11.6167
ple	-11.6168
frame	-11.6171
lands	-11.6172
▁athlete	-11.6172
eth	-11.6172
▁businessman	-11.6172
▁Beat	-11.6173
▁Jong	-11.6174
▁1971	-11.6174
▁Kan	-11.6175
▁stimulus	-11.6178
▁disruption	-11.618
social	-11.6182
▁firearm	-11.6184
▁Anyway	-11.6185
▁liability	-11.6185
▁Cardinals	-11.6188
▁Sullivan	-11.619
▁Phillips	-11.6192
php	-11.6192
▁(8	-11.6193
More	-11.6193
Bo	-11.6195
▁14.	-11.6195
building	-11.6196
▁identities	-11.6196
▁linear	-11.6196
▁reluctant	-11.6198
▁cow	-11.6199
ching	-11.6203
▁manipulation	-11.6203
Men	-11.6204
▁(3)	-11.6209
▁incoming	-11.6213
▁Ultimately	-11.6214
▁ordinance	-11.6214
▁horses	-11.6215
▁CI	-11.6215
▁justification	-11.6215
▁travelling	-11.6216
▁forests	-11.6219
▁Really	-11.622
▁labeled	-11.6221
▁theoretical	-11.6222
▁Roll	-11.6222
▁namely	-11.6223
▁midst	-11.6224
▁rebuild	-11.6226
▁theaters	-11.6228
▁subjected	-11.623
7)	-11.6236
▁credited	-11.6236
▁Milan	-11.6236
▁brick	-11.6238
▁Steel	-11.6238
▁breed	-11.6239
▁Roosevelt	-11.624
script	-11.6241
rn	-11.6241
▁hardest	-11.6241
enter	-11.6241
▁HBO	-11.6241
▁CB	-11.6242
▁protective	-11.6246
John	-11.6247
God	-11.6247
▁tourist	-11.6247
▁evolutionary	-11.6248
▁Ze	-11.6249
▁drill	-11.625
▁pa	-11.6251
▁Nancy	-11.6252
▁listened	-11.6254
▁tactic	-11.6255
▁Hay	-11.6256
▁convincing	-11.6256
▁Cast	-11.6257
bell	-11.6259
▁correlation	-11.6261
▁credible	-11.6261
▁DO	-11.6261
▁Tigers	-11.6262
▁characterized	-11.6263
nell	-11.6264
gas	-11.6264
▁30%	-11.6265
▁1974	-11.6267
▁cruel	-11.6268
▁Taking	-11.627
▁Halloween	-11.6271
▁financially	-11.6271
▁lovely	-11.6271
kan	-11.6273
▁albums	-11.6274
▁Cover	-11.6274
▁Hero	-11.6274
▁maintains	-11.6275
▁preseason	-11.6275
▁0.1	-11.6275
▁processed	-11.6277
▁neutrality	-11.6278
▁Jun	-11.6278
▁jam	-11.6281
▁municipal	-11.6282
▁binary	-11.6283
▁Blair	-11.6285
rum	-11.6286
▁beside	-11.6286
ast	-11.6291
▁Sex	-11.6292
▁Jobs	-11.6293
▁Nine	-11.6294
▁consistency	-11.6294
▁Var	-11.6296
▁completing	-11.6298
▁Often	-11.6298
61	-11.63
▁cinema	-11.63
▁killings	-11.63
▁warn	-11.6302
▁Jesse	-11.6302
▁Shah	-11.6305
especially	-11.6306
▁Ale	-11.6308
▁Official	-11.6309
▁sweeping	-11.6309
▁contractor	-11.631
▁profession	-11.6314
▁Rodgers	-11.6315
ern	-11.6316
▁Brotherhood	-11.6316
▁wrist	-11.6316
▁cousin	-11.6317
▁lined	-11.6317
▁endorsement	-11.6318
▁tribes	-11.6318
▁triumph	-11.632
▁jacket	-11.6322
▁infant	-11.6325
Two	-11.6326
▁Broadway	-11.6327
▁utterly	-11.6328
Yeah	-11.6328
▁functioning	-11.6333
▁extending	-11.6333
▁prediction	-11.6333
▁biology	-11.6334
WA	-11.6336
▁modes	-11.634
▁objectives	-11.6341
▁violating	-11.6342
fo	-11.6344
▁Chan	-11.6344
▁LP	-11.6345
▁Joint	-11.6345
▁2-	-11.6346
▁Luis	-11.6347
▁extremist	-11.6348
other	-11.6349
▁kicking	-11.6349
▁Face	-11.6351
▁signatures	-11.6351
Time	-11.6352
▁glory	-11.6353
▁victories	-11.6353
33	-11.6354
▁Lost	-11.6356
▁careers	-11.6356
IA	-11.6358
▁fork	-11.6359
▁contributor	-11.636
▁subway	-11.6361
▁tender	-11.6361
▁Op	-11.6363
oid	-11.6364
▁Chase	-11.6367
▁Nashville	-11.6368
▁Soccer	-11.6368
▁Blu	-11.637
▁88	-11.6371
stop	-11.6372
▁exploitation	-11.6373
▁equation	-11.6373
yu	-11.6377
▁inability	-11.6379
▁Gro	-11.6379
▁shoe	-11.638
burg	-11.6382
▁Bannon	-11.6383
▁sporting	-11.6384
-18	-11.6385
▁flooding	-11.6385
▁demonstrates	-11.6387
max	-11.6388
▁sometime	-11.6389
▁Sp	-11.6391
Ha	-11.6391
▁fitting	-11.6391
▁Costa	-11.6395
Type	-11.6395
▁Pictures	-11.6404
▁Py	-11.6404
rid	-11.6406
check	-11.6406
▁Es	-11.641
control	-11.641
▁Fortunately	-11.6413
osa	-11.6415
▁prop	-11.6417
▁syndrome	-11.6419
▁insights	-11.642
bling	-11.6421
▁Yankees	-11.6426
▁""[	-11.6426
▁breakthrough	-11.6428
52	-11.6429
ulation	-11.6432
▁analyzed	-11.6433
ela	-11.6433
▁shootings	-11.6434
▁Eli	-11.6434
▁Blues	-11.6435
▁(10	-11.6435
▁Strike	-11.6437
▁seal	-11.6437
▁violate	-11.6441
▁discourse	-11.6442
▁Website	-11.6442
▁bind	-11.6444
aro	-11.6445
▁barrels	-11.6446
▁Fe	-11.6446
▁Para	-11.6446
▁Focus	-11.6447
▁Strong	-11.6447
▁Assange	-11.6449
▁Cox	-11.645
▁fortune	-11.6452
EL	-11.6456
▁relied	-11.6457
▁Continued	-11.6458
▁legislators	-11.6458
ova	-11.6459
▁skip	-11.6459
▁muscles	-11.646
▁dare	-11.6461
▁Collection	-11.6461
▁Gene	-11.6462
▁authentic	-11.6463
▁Hopefully	-11.6464
▁AC	-11.6466
▁2018.	-11.6469
▁laughed	-11.6474
▁lately	-11.6474
▁edges	-11.6475
▁Rule	-11.6476
▁aides	-11.6476
▁portrayed	-11.6477
▁committing	-11.6477
▁Hughes	-11.6477
▁rejection	-11.6477
▁switching	-11.6477
▁Pu	-11.6478
▁basement	-11.6478
▁FIFA	-11.6479
▁bicycle	-11.6479
▁organ	-11.6481
▁Baghdad	-11.6481
▁profitable	-11.6484
MO	-11.6487
▁cartoon	-11.6489
▁banner	-11.649
▁Calif	-11.649
▁1%	-11.649
▁vowed	-11.6492
▁Ground	-11.6496
45	-11.6498
▁helmet	-11.6498
▁prevention	-11.6499
CNN	-11.65
yr	-11.6501
▁subscribers	-11.6502
▁Cell	-11.6504
▁necessity	-11.6505
▁Affordable	-11.6509
▁shapes	-11.6509
▁Jessica	-11.6511
ore	-11.6515
▁Airlines	-11.6517
▁Okay	-11.6518
▁Nat	-11.6521
mis	-11.6523
▁==	-11.6523
▁20,000	-11.6523
▁dominate	-11.6524
▁premise	-11.6526
▁upside	-11.6526
des	-11.6528
dev	-11.6529
▁neurons	-11.6533
▁revelations	-11.6534
▁aboard	-11.6535
:30	-11.6535
▁supplied	-11.6537
▁$30	-11.6539
PP	-11.6541
First	-11.6542
▁ritual	-11.6544
▁kills	-11.6545
▁columnist	-11.6545
▁aiming	-11.6545
▁Indianapolis	-11.6546
▁assaulted	-11.6547
▁Occupy	-11.6549
String	-11.6549
▁utilize	-11.655
▁3:	-11.655
▁condemn	-11.6552
▁Kane	-11.6553
grade	-11.6558
▁tricks	-11.656
▁catching	-11.6563
▁CSS	-11.6563
Your	-11.6563
▁Living	-11.6563
▁facial	-11.6565
▁nightmare	-11.6567
▁Enter	-11.6567
▁Strip	-11.6568
sis	-11.6571
▁lethal	-11.6572
▁urgent	-11.6574
▁TODAY	-11.6576
▁arbitrary	-11.6577
▁Happy	-11.6578
▁worrying	-11.6578
▁Outside	-11.6578
▁oven	-11.6581
▁declaring	-11.6584
ying	-11.6585
▁licenses	-11.6585
▁arrives	-11.6587
▁buzz	-11.6587
▁Training	-11.6588
▁stranger	-11.6589
▁starring	-11.6589
▁useless	-11.6589
▁mob	-11.6591
▁volumes	-11.6596
▁cord	-11.6597
▁minimize	-11.6599
▁25%	-11.6603
▁ego	-11.6603
▁Average	-11.6606
▁Visual	-11.6607
▁Chip	-11.6609
▁Electric	-11.6611
ander	-11.6613
▁embarrassing	-11.6613
▁reception	-11.6614
▁reduces	-11.6615
▁chains	-11.6615
▁echo	-11.6617
▁Student	-11.6617
▁Someone	-11.6617
▁worries	-11.6618
▁accusing	-11.6618
▁interpret	-11.6619
▁bullets	-11.6621
political	-11.6622
▁caps	-11.6622
▁electronics	-11.6623
hat	-11.6624
▁sticking	-11.6624
RT	-11.6624
▁Generation	-11.6624
▁schemes	-11.6625
▁theatre	-11.6626
▁Holocaust	-11.6627
▁Glen	-11.6627
▁Laden	-11.6627
▁deliberate	-11.6628
▁Jared	-11.6629
▁relying	-11.6629
▁defendant	-11.663
coming	-11.663
Where	-11.6631
▁Kill	-11.6631
▁duck	-11.6631
▁preferences	-11.6632
▁analyses	-11.6632
▁Shaw	-11.6635
▁pockets	-11.6635
SS	-11.6636
▁railway	-11.6639
ign	-11.6639
▁Cape	-11.664
8,000	-11.6641
▁Ser	-11.6646
dal	-11.6647
▁Norman	-11.6647
▁Cancer	-11.6649
▁Sri	-11.665
▁folk	-11.6657
▁blown	-11.6658
▁tackles	-11.6658
AGE	-11.6658
bridge	-11.6659
ked	-11.6659
▁Barr	-11.6659
mes	-11.666
×	-11.6662
▁Mohammed	-11.6663
▁excluded	-11.6669
▁1964	-11.6669
▁glasses	-11.6669
57	-11.667
▁laying	-11.667
▁Hey	-11.6672
▁intentionally	-11.6672
▁Mall	-11.6672
▁heated	-11.6672
chen	-11.6673
sign	-11.6674
▁manifest	-11.6674
83	-11.6677
▁stunt	-11.6677
▁URL	-11.6684
▁weigh	-11.6687
▁revenge	-11.669
▁Kremlin	-11.669
ori	-11.669
900	-11.6692
▁Heritage	-11.6693
▁recreational	-11.6693
▁eventual	-11.6694
EP	-11.6694
ography	-11.6701
▁prejudice	-11.6701
force	-11.6702
▁proving	-11.6706
▁damages	-11.6709
CE	-11.6711
uring	-11.6712
▁specify	-11.6712
▁Mann	-11.6715
▁reviewing	-11.6717
▁convenience	-11.6724
player	-11.6725
▁Hor	-11.6726
▁st	-11.6729
▁Packers	-11.673
▁mobility	-11.6732
▁Potter	-11.6733
▁Zone	-11.6733
▁Palm	-11.6733
▁notorious	-11.6734
▁holders	-11.6735
▁revelation	-11.674
big	-11.6742
▁Nazis	-11.6742
▁credentials	-11.6745
▁nationalist	-11.6746
▁Belgian	-11.6747
▁PDF	-11.6748
▁lesbian	-11.6748
▁donor	-11.6751
▁poses	-11.6752
third	-11.6753
▁2000,	-11.6756
track	-11.676
▁valued	-11.6761
craft	-11.6762
▁mentor	-11.6766
-13	-11.6767
ose	-11.6768
▁currencies	-11.677
national	-11.677
▁convey	-11.6772
▁Th	-11.6773
▁symbols	-11.6773
▁stamp	-11.6773
▁sweep	-11.6773
add	-11.6775
flow	-11.6775
▁mathematical	-11.6776
▁Creative	-11.6778
▁macro	-11.6779
▁HTC	-11.678
although	-11.678
▁terrain	-11.6781
▁kg	-11.6782
▁famously	-11.6783
▁twelve	-11.6785
▁messaging	-11.6785
▁pronounced	-11.6785
emi	-11.6786
▁Portugal	-11.6789
▁Finland	-11.679
▁Engineering	-11.679
▁albeit	-11.6791
▁unaware	-11.6794
▁0.3	-11.6794
Black	-11.6794
▁ALL	-11.6795
▁Weekly	-11.6796
▁Eddie	-11.6797
▁Prison	-11.6798
▁cm	-11.6799
ean	-11.6801
▁Chancellor	-11.6802
OK	-11.6803
▁inherent	-11.6803
▁Alpha	-11.6804
▁satisfaction	-11.6804
▁02	-11.6807
something	-11.6808
▁cart	-11.6809
▁fixes	-11.6812
▁Advanced	-11.6817
▁Ly	-11.6818
▁pad	-11.6819
▁brewery	-11.6821
~	-11.6822
▁troubled	-11.6823
▁invisible	-11.6823
▁Basic	-11.6828
St	-11.6829
▁Reg	-11.6829
▁graduated	-11.6833
▁varying	-11.6836
▁Unity	-11.6837
green	-11.6838
▁dimensions	-11.6839
▁torn	-11.6839
▁settlements	-11.6841
▁Stars	-11.6841
▁undoubtedly	-11.6843
▁ladder	-11.6843
▁Armstrong	-11.6847
”—	-11.6847
▁neural	-11.6847
73	-11.6851
aj	-11.6851
active	-11.6852
▁pastor	-11.6853
▁streams	-11.6853
ido	-11.6854
▁WE	-11.6858
▁vacuum	-11.6858
▁austerity	-11.6859
▁tide	-11.686
▁uncle	-11.686
▁1965	-11.686
▁murders	-11.6862
▁memorable	-11.6862
▁swept	-11.6862
▁Dawn	-11.6863
tr	-11.6863
▁Tur	-11.6864
▁EC	-11.6865
char	-11.6866
▁bust	-11.6867
▁Guild	-11.687
▁Zo	-11.687
▁Performance	-11.687
▁kilometers	-11.6871
TE	-11.6871
race	-11.6874
▁ski	-11.6875
▁backers	-11.6876
▁PhD	-11.6882
▁Duncan	-11.6882
▁jaw	-11.6882
▁ka	-11.6887
mu	-11.6888
1.	-11.689
▁behaviors	-11.6891
▁25-	-11.6891
▁implies	-11.6893
▁Going	-11.6894
▁runner	-11.6895
▁clouds	-11.6896
may	-11.6896
▁fictional	-11.6897
▁flows	-11.6897
▁dominance	-11.6897
▁Firefox	-11.6897
▁gesture	-11.6898
dra	-11.69
▁noble	-11.69
▁compact	-11.69
▁tablets	-11.6901
▁spells	-11.6905
▁expectation	-11.6906
▁newer	-11.6908
▁Hispanic	-11.6909
▁hacked	-11.6911
ged	-11.6913
▁CT	-11.692
▁101	-11.6921
▁hop	-11.6922
▁Fun	-11.6922
▁Presidential	-11.6923
▁Pur	-11.6923
▁networking	-11.6927
▁handy	-11.6928
▁Ahmed	-11.6929
▁uncovered	-11.693
▁specialized	-11.6932
▁recipes	-11.6933
▁ta	-11.6933
rc	-11.6934
▁divisions	-11.6935
RP	-11.6937
▁dies	-11.6937
▁organised	-11.6938
▁LG	-11.6939
▁Sin	-11.6939
▁Private	-11.6939
▁Vatican	-11.694
▁factories	-11.6943
HA	-11.6943
▁galaxy	-11.6944
▁Flag	-11.6945
tus	-11.6946
▁punish	-11.6947
▁foreigners	-11.6948
▁stat	-11.695
▁$200	-11.6951
nik	-11.6951
▁broadly	-11.6951
▁passive	-11.6952
▁2002,	-11.6953
▁Wo	-11.6958
AU	-11.6959
▁ERA	-11.6959
mel	-11.696
cia	-11.6961
▁plates	-11.6962
unconstitutional	-11.6962
ua	-11.6963
Ro	-11.6967
▁Track	-11.6971
▁retained	-11.6971
▁sensitivity	-11.6972
.[12]	-11.6972
▁lung	-11.6973
▁chunk	-11.6973
oma	-11.6974
▁prompt	-11.6974
CP	-11.6974
una	-11.6974
lation	-11.6976
▁VI	-11.6978
▁blew	-11.6979
▁separately	-11.698
pped	-11.698
▁persistent	-11.698
▁socially	-11.6981
▁96	-11.6982
81	-11.6982
▁Lt	-11.6982
▁searched	-11.6983
ute	-11.6984
En	-11.6984
▁crowded	-11.6984
▁DLC	-11.6987
EE	-11.6988
▁mentions	-11.6989
▁hearings	-11.6989
▁const	-11.6989
ington	-11.699
▁prohibition	-11.6992
▁pp	-11.6992
▁Fo	-11.6992
tron	-11.6993
▁exceptional	-11.6994
▁£2	-11.7
▁tutorial	-11.7001
rian	-11.7002
▁Similar	-11.7004
▁RPG	-11.7005
NY	-11.7005
▁magazines	-11.7006
▁shore	-11.7012
▁Language	-11.7012
▁Simpson	-11.7013
▁Cash	-11.7014
▁Fat	-11.7016
▁Marx	-11.7016
▁obesity	-11.7018
▁parameter	-11.7023
sel	-11.7024
▁destructive	-11.7024
▁2018,	-11.7027
CK	-11.7029
▁Toyota	-11.703
▁sensation	-11.7031
▁LED	-11.7032
▁0.9	-11.7033
▁Conclusion	-11.7034
.’”	-11.7035
kel	-11.7036
▁favorable	-11.7037
▁vi	-11.7038
qua	-11.7039
▁Lower	-11.704
▁soundtrack	-11.7042
▁86	-11.7042
▁submission	-11.7045
▁risky	-11.7045
▁Bla	-11.7047
▁Browns	-11.7048
▁Nigeria	-11.7048
▁overtime	-11.7049
▁79	-11.7049
▁81	-11.7049
▁shareholders	-11.7051
▁coat	-11.7052
▁delete	-11.7052
▁Motor	-11.7052
member	-11.7053
▁Az	-11.7054
▁04	-11.7054
▁ghost	-11.7055
▁arise	-11.7056
▁quarters	-11.7057
▁colonial	-11.7057
▁measuring	-11.7058
▁Turn	-11.7058
▁thrust	-11.7059
▁Sources	-11.7063
Bar	-11.7063
ax	-11.7065
▁divine	-11.7066
▁whites	-11.7066
▁ruin	-11.7068
▁Made	-11.707
▁defendants	-11.7071
▁quantity	-11.7074
▁rings	-11.7074
...""	-11.7075
▁tokens	-11.7075
▁Works	-11.7076
▁mock	-11.7077
▁eliminating	-11.7077
▁rugby	-11.7078
▁Sim	-11.7078
chu	-11.7079
aire	-11.708
pc	-11.7081
▁mum	-11.7084
stra	-11.7085
▁suburban	-11.7087
▁dip	-11.7089
▁merit	-11.7089
▁Jeffrey	-11.7089
cur	-11.709
aged	-11.7095
vid	-11.7096
▁Farm	-11.7097
▁attackers	-11.7097
▁interpreted	-11.7099
▁Girls	-11.71
▁Nebraska	-11.7101
▁villain	-11.7101
▁solving	-11.7102
▁Single	-11.7102
▁dismiss	-11.7103
▁banning	-11.7103
▁ramp	-11.7105
▁Unless	-11.7107
▁deposit	-11.7107
▁Joel	-11.7108
▁lib	-11.7109
▁Palmer	-11.7115
▁thorough	-11.7115
city	-11.7117
▁propose	-11.7119
▁Bas	-11.712
eur	-11.712
▁font	-11.7121
▁Wells	-11.7125
▁ISBN	-11.7125
▁finale	-11.7125
inger	-11.7125
MM	-11.7127
▁Armed	-11.7128
TC	-11.7129
▁voluntary	-11.7129
▁Diamond	-11.7131
nk	-11.7131
ground	-11.7131
▁questionable	-11.7131
▁entrepreneurs	-11.7131
71	-11.7132
▁Brewing	-11.7132
▁varied	-11.7133
▁Plant	-11.7134
▁Culture	-11.7134
3%	-11.7135
▁sync	-11.7135
▁Brain	-11.7136
▁realise	-11.7136
▁Klein	-11.7137
▁Chiefs	-11.7137
-14	-11.7138
▁ko	-11.714
▁Interior	-11.7141
▁patience	-11.7141
imi	-11.7141
▁sharply	-11.7143
▁hated	-11.7143
▁comp	-11.7144
▁Jam	-11.7147
SD	-11.7148
tter	-11.7155
▁indie	-11.7156
mod	-11.7156
mir	-11.7158
▁Match	-11.7158
Right	-11.7158
▁designing	-11.7159
▁Chronicle	-11.7162
▁Queensland	-11.7162
▁Bus	-11.7165
▁hedge	-11.7168
Ka	-11.7168
▁touching	-11.7169
▁lone	-11.717
▁drum	-11.7172
▁84	-11.7173
▁publicity	-11.7173
▁packs	-11.7173
▁140	-11.7174
▁consulting	-11.7174
▁nationally	-11.7174
▁Formula	-11.7174
▁cycles	-11.7175
▁Matter	-11.7176
8)	-11.7176
▁Edmonton	-11.7177
▁ignorance	-11.7177
▁veto	-11.7177
▁trademark	-11.7179
▁Ultra	-11.718
▁beans	-11.7182
▁Junior	-11.7185
▁nasty	-11.7185
▁flaws	-11.7187
wind	-11.7188
▁fold	-11.7189
▁4-	-11.7189
▁Large	-11.719
▁copper	-11.7191
▁03	-11.7193
▁Male	-11.7194
▁Disease	-11.7197
host	-11.7198
▁fierce	-11.7198
▁landmark	-11.7199
pdf	-11.7199
▁Emily	-11.7202
VA	-11.7202
▁columns	-11.7203
▁multiplayer	-11.7205
sic	-11.7206
▁Comp	-11.7207
ied	-11.721
▁Writing	-11.721
▁injection	-11.7211
▁Relations	-11.7213
▁1968	-11.7213
going	-11.7214
nia	-11.7216
▁Hungary	-11.7218
▁nonsense	-11.7219
ENT	-11.722
▁Aleppo	-11.7221
▁sealed	-11.7222
FL	-11.7223
▁Question	-11.7223
.[13]	-11.7225
▁ni	-11.7226
▁trio	-11.7229
▁heating	-11.723
▁WA	-11.7231
last	-11.7232
▁belonging	-11.7234
▁complaining	-11.7235
▁metric	-11.7235
▁surveys	-11.7236
▁whatsoever	-11.7237
▁Eye	-11.7239
science	-11.7242
fact	-11.7243
▁Il	-11.7244
▁Gibson	-11.7245
▁Shortly	-11.7245
▁elevated	-11.7245
▁lending	-11.7246
▁Bro	-11.7246
▁Newsletter	-11.7249
dict	-11.725
▁entertaining	-11.7251
▁presenting	-11.7255
▁Yale	-11.7255
berry	-11.7255
▁proxy	-11.7257
▁disrupt	-11.7257
▁Cho	-11.7259
▁architect	-11.726
▁loses	-11.726
Big	-11.7261
▁Statistics	-11.7261
▁turnout	-11.7261
▁genocide	-11.7263
▁Bernard	-11.7264
▁wash	-11.7264
Car	-11.7265
▁combo	-11.7265
▁concentrated	-11.7266
▁jazz	-11.7267
000	-11.7267
▁Host	-11.7268
▁Rodriguez	-11.7269
▁naval	-11.727
▁Shop	-11.727
▁aggressively	-11.7272
▁Return	-11.7272
▁#3	-11.7272
kh	-11.7273
▁critique	-11.7273
▁bath	-11.7274
▁sovereign	-11.7275
rating	-11.7276
▁elect	-11.7279
▁farmer	-11.7279
▁opted	-11.728
▁intimate	-11.7284
▁variant	-11.7284
▁brush	-11.7285
▁Comcast	-11.7285
▁teammate	-11.7287
Please	-11.7287
▁Ring	-11.7288
▁extremists	-11.7288
oriented	-11.7289
▁clause	-11.7289
strong	-11.7289
▁Karen	-11.7289
Game	-11.7294
▁Rad	-11.7294
Pa	-11.7295
pet	-11.7296
▁Monster	-11.7297
ste	-11.7298
-17	-11.7301
▁denies	-11.7302
▁Switch	-11.7303
▁Cool	-11.7303
db	-11.7304
▁Chu	-11.7304
▁Char	-11.7311
▁Industry	-11.7313
▁dragged	-11.7314
fest	-11.7315
▁flawed	-11.7315
TER	-11.7316
Ar	-11.7317
block	-11.7317
fan	-11.7318
▁aliens	-11.732
▁1945	-11.7322
▁incorrect	-11.7322
▁realised	-11.7326
▁obscure	-11.7326
▁youngest	-11.7328
▁Gal	-11.7329
▁Princess	-11.7331
▁Fer	-11.7333
▁Czech	-11.7334
LC	-11.7334
▁$12	-11.7334
▁pitching	-11.7337
▁intact	-11.7338
▁metaphor	-11.7338
▁NHS	-11.7338
▁Tommy	-11.734
▁socialism	-11.7341
▁recognise	-11.7341
▁clerk	-11.7342
▁Urine	-11.7342
▁Grey	-11.7342
▁90%	-11.7343
▁stays	-11.7346
▁ankle	-11.735
▁accord	-11.735
▁expressions	-11.735
zz	-11.7351
▁licence	-11.7354
eri	-11.7355
▁deportation	-11.7355
count	-11.7357
▁strategist	-11.7358
▁secretly	-11.736
▁qualifying	-11.736
▁rat	-11.7361
▁initiated	-11.7361
▁loading	-11.7362
bon	-11.7364
CR	-11.7365
▁SF	-11.7365
▁mathematics	-11.737
▁Border	-11.7373
▁castle	-11.7374
▁Buddhist	-11.7374
▁owns	-11.7374
▁Path	-11.7378
▁mud	-11.7378
love	-11.7378
▁spends	-11.738
▁compromised	-11.738
▁prosperity	-11.7383
▁modify	-11.7383
▁Wing	-11.7385
rr	-11.7386
ique	-11.7387
▁Event	-11.7387
▁Horse	-11.7387
▁Rat	-11.7388
iling	-11.7389
▁unrest	-11.7389
length	-11.7389
▁sneak	-11.739
▁steadily	-11.7391
▁cryptocurrency	-11.7391
▁terrifying	-11.7391
▁troubling	-11.7395
▁thrive	-11.7396
UN	-11.7396
▁riot	-11.7398
▁Touch	-11.7399
▁Dame	-11.7405
▁manufactured	-11.7405
▁makeup	-11.7406
▁attraction	-11.7409
▁horrific	-11.7411
▁teaches	-11.7411
▁nerve	-11.7414
FS	-11.7416
meter	-11.7416
▁abortions	-11.7418
▁Ak	-11.742
▁dynamics	-11.7423
▁tent	-11.7423
▁cattle	-11.7424
ante	-11.7429
▁downloaded	-11.7429
Data	-11.743
zone	-11.7431
▁Television	-11.7431
▁linking	-11.7432
▁Loading	-11.7436
▁Castro	-11.7437
food	-11.7442
▁outlook	-11.7442
▁rolls	-11.7444
cul	-11.7445
▁Wait	-11.7447
SON	-11.745
▁Bangladesh	-11.7451
▁backwards	-11.7452
▁Lance	-11.7453
▁Twin	-11.746
▁Sel	-11.7461
▁NS	-11.7461
▁commitments	-11.7462
px	-11.7462
dog	-11.7463
▁Democracy	-11.7463
▁VM	-11.7464
try	-11.7464
▁accent	-11.7465
▁Dad	-11.7467
▁frames	-11.7467
:20	-11.7467
[3]	-11.7468
▁endorse	-11.7469
▁suburbs	-11.7469
▁neighboring	-11.747
hol	-11.747
▁reminds	-11.7472
▁doubts	-11.7475
▁mg	-11.7476
▁Movie	-11.7477
▁overly	-11.7478
▁cigarettes	-11.748
ld	-11.7481
▁sells	-11.7481
tis	-11.7482
▁Consumer	-11.7483
cru	-11.7484
▁tracked	-11.7485
rant	-11.7487
▁Tottenham	-11.7487
:10	-11.7488
▁startups	-11.7488
▁header	-11.7489
▁piano	-11.749
▁syntax	-11.7493
ators	-11.7494
both	-11.7495
met	-11.7496
▁companion	-11.7497
▁miners	-11.7497
▁Hudson	-11.7497
DR	-11.7498
▁pe	-11.7499
▁EA	-11.75
▁progression	-11.75
rt	-11.7502
▁boots	-11.7503
▁annoying	-11.7504
▁assure	-11.7508
▁intriguing	-11.751
▁diesel	-11.7511
▁incorporated	-11.7512
▁Stra	-11.7513
▁Margaret	-11.7514
▁provinces	-11.7515
▁cope	-11.7516
▁Iceland	-11.7519
▁codes	-11.752
▁Screen	-11.752
▁govern	-11.7521
▁habitat	-11.7521
World	-11.7523
▁Ask	-11.7524
▁imports	-11.7525
▁criticised	-11.7525
▁Originally	-11.7526
▁Erdogan	-11.7526
▁ninth	-11.7526
make	-11.7528
▁nail	-11.7528
pop	-11.7529
sharing	-11.7529
▁Kal	-11.7529
▁dire	-11.7529
▁Cubs	-11.7529
▁nano	-11.7531
3,000	-11.7532
▁CF	-11.754
▁mapping	-11.7541
▁prisoner	-11.7541
▁meter	-11.7541
shaped	-11.7546
eta	-11.7546
system	-11.7547
▁BB	-11.7548
▁Wang	-11.7548
▁pornography	-11.7551
dollar	-11.7552
▁achievements	-11.7554
▁flour	-11.7555
▁MSNBC	-11.7555
▁Julie	-11.7555
▁Mir	-11.7556
▁placement	-11.7558
▁packaging	-11.756
▁Cer	-11.7561
▁practicing	-11.7563
▁Ethereum	-11.7563
root	-11.7564
USA	-11.7565
cum	-11.7572
▁80%	-11.7572
▁Baby	-11.7573
▁kicks	-11.7573
▁Sierra	-11.7576
ras	-11.7576
▁robbery	-11.7577
▁"“	-11.7578
▁mindset	-11.7579
▁calories	-11.7579
▁blade	-11.7579
▁administrators	-11.7579
▁oral	-11.758
▁obstacles	-11.7581
▁economically	-11.7582
▁consultation	-11.7582
▁Weather	-11.7586
Look	-11.7586
▁whoever	-11.7586
ello	-11.7587
▁mounting	-11.7587
▁offenders	-11.7588
stream	-11.7592
▁Mercedes	-11.7592
▁irrelevant	-11.7592
▁stripped	-11.7593
▁thrilled	-11.7593
▁Benghazi	-11.7597
▁nonetheless	-11.7597
▁Housing	-11.7597
▁>>>	-11.7597
Net	-11.7599
▁applicable	-11.7601
▁TR	-11.7604
▁Days	-11.7604
▁graduates	-11.7605
▁tuition	-11.7605
▁oppression	-11.7605
Many	-11.7605
AF	-11.7605
▁rats	-11.7606
AA	-11.7608
/11	-11.7608
▁defines	-11.7608
▁injustice	-11.761
War	-11.7611
▁colony	-11.7613
▁deposits	-11.7613
▁bay	-11.7614
public	-11.7617
eu	-11.7618
▁overhead	-11.762
▁electorate	-11.7622
▁HTTP	-11.7622
▁Eight	-11.7625
▁sticks	-11.7626
▁precision	-11.7627
▁commissioned	-11.763
▁critically	-11.7633
▁flee	-11.7633
▁stole	-11.7635
▁portal	-11.7635
▁chess	-11.7637
▁euros	-11.7637
▁Mill	-11.7638
itz	-11.7639
▁Gra	-11.7641
▁clashes	-11.7642
ico	-11.7642
▁Gabriel	-11.7647
▁Herald	-11.765
▁prayers	-11.7654
▁virtue	-11.7654
▁rendered	-11.7654
▁92	-11.7654
PR	-11.7656
▁palm	-11.7658
▁furniture	-11.7659
▁cooperative	-11.766
▁emotionally	-11.7662
▁Holland	-11.7664
mus	-11.7664
/5	-11.7664
▁Details	-11.7665
▁beast	-11.7668
▁Hills	-11.7671
51	-11.7672
PO	-11.7674
▁regulated	-11.7674
▁Malcolm	-11.7674
▁Porter	-11.7675
Com	-11.7677
▁Comments	-11.7678
▁Authorities	-11.7681
och	-11.7681
▁clarify	-11.7681
▁lifting	-11.7682
▁GA	-11.7682
▁slice	-11.7682
▁concludes	-11.7684
▁Sacramento	-11.7685
▁BY	-11.7685
▁Imp	-11.7686
▁1966	-11.7686
▁internationally	-11.7687
dor	-11.7688
Note	-11.7689
▁Ros	-11.7692
▁Mod	-11.7693
▁Telegraph	-11.7693
▁nicely	-11.7693
▁poetry	-11.7693
▁Thor	-11.7699
▁pale	-11.7702
▁Pink	-11.7702
▁distinguish	-11.7702
▁rig	-11.7703
gay	-11.7704
Mobile	-11.7705
rah	-11.7706
▁Lightning	-11.7706
▁Otherwise	-11.7706
tie	-11.7708
lum	-11.771
▁stark	-11.771
ito	-11.7712
would	-11.7714
▁Professional	-11.7714
▁purple	-11.7717
xi	-11.7718
▁booth	-11.7719
▁upgrades	-11.772
▁meditation	-11.7722
▁PRO	-11.7724
▁Jen	-11.7725
▁scrap	-11.7726
full	-11.7729
▁surviving	-11.7731
59	-11.7731
▁Cy	-11.7732
▁Stevens	-11.7733
▁accidents	-11.7733
hir	-11.7733
▁Ana	-11.7735
▁Cabinet	-11.7735
▁intends	-11.7735
▁Personal	-11.7735
gr	-11.7737
▁inventory	-11.7738
9)	-11.7739
iva	-11.7739
▁investigative	-11.7739
▁Dem	-11.7741
▁cruise	-11.7741
▁sue	-11.7743
▁1.3	-11.7744
IO	-11.7745
▁norm	-11.7748
▁RB	-11.7749
▁continually	-11.7749
▁Noah	-11.775
present	-11.775
sil	-11.7753
RS	-11.7753
▁launches	-11.7754
displaystyle	-11.7756
▁brew	-11.7756
▁08	-11.7756
▁efficiently	-11.7757
stage	-11.7761
▁exceed	-11.7761
▁Vincent	-11.7761
▁thumb	-11.7763
▁Basically	-11.7763
▁naming	-11.7765
▁pleasant	-11.7766
▁punished	-11.7766
▁exploded	-11.7769
▁Grace	-11.7769
▁fleeing	-11.7772
▁Schumer	-11.7773
▁guided	-11.7774
▁associations	-11.7774
RI	-11.7775
▁issuing	-11.7777
▁constraints	-11.778
▁lecture	-11.778
▁notified	-11.7781
stick	-11.7781
LO	-11.7781
▁Senators	-11.7782
▁Champion	-11.7784
▁350	-11.7784
▁policing	-11.7786
ache	-11.7788
▁0.00	-11.7789
▁Gandhi	-11.779
▁autism	-11.779
▁enacted	-11.7791
▁bra	-11.7792
▁pharmaceutical	-11.7794
▁fulfill	-11.7794
▁Meyer	-11.7795
▁Tro	-11.7798
cross	-11.7799
▁proposition	-11.7799
ridge	-11.78
then	-11.78
▁Nar	-11.78
▁Caribbean	-11.78
▁Sur	-11.7803
▁sweat	-11.7805
▁Clearly	-11.7806
outs	-11.7807
▁disastrous	-11.7807
▁Munich	-11.7807
▁tournaments	-11.7807
▁17-	-11.7809
runner	-11.7809
▁Crystal	-11.781
▁midfield	-11.781
▁FL	-11.7811
OT	-11.7812
▁Region	-11.7812
▁Were	-11.7813
▁appreciated	-11.7814
▁crystal	-11.7814
▁reversed	-11.7814
▁distinctive	-11.7815
pel	-11.7816
▁suited	-11.7816
▁attribute	-11.7817
▁Gore	-11.7819
▁Commonwealth	-11.782
▁infections	-11.7821
Russian	-11.7823
▁Lives	-11.7824
▁distress	-11.7824
▁superhero	-11.7826
DE	-11.7828
▁Gla	-11.7828
▁Greater	-11.7829
▁Nova	-11.7829
▁musician	-11.783
▁Chad	-11.7831
▁93	-11.7832
▁refuses	-11.7832
got	-11.7833
/12	-11.7837
▁proves	-11.784
▁crap	-11.7841
▁Location	-11.7845
▁16.	-11.7847
tim	-11.7847
/3	-11.7848
▁recordings	-11.7849
▁sheets	-11.7851
mont	-11.7851
▁explored	-11.7851
▁Crimea	-11.7852
TR	-11.7852
▁Ah	-11.7853
▁Les	-11.7854
▁niche	-11.7855
▁flagship	-11.7855
▁Henderson	-11.7858
▁Quinn	-11.7859
▁Newcastle	-11.7859
▁aesthetic	-11.7859
▁dear	-11.7862
▁Fra	-11.7866
▁flowing	-11.7866
▁holidays	-11.7868
▁bosses	-11.7868
▁couch	-11.7869
GO	-11.7872
▁mat	-11.7874
▁commodity	-11.7875
sec	-11.7876
▁polar	-11.7877
▁Sat	-11.7879
▁activate	-11.7879
▁compounds	-11.7879
▁molecules	-11.788
▁grim	-11.7883
dd	-11.7884
▁Body	-11.7886
▁Twenty	-11.7888
▁110	-11.7888
▁Legislature	-11.7888
nz	-11.7888
▁preserved	-11.7889
▁fever	-11.789
▁portrait	-11.7891
great	-11.7892
aff	-11.7892
▁por	-11.7893
"";	-11.7895
▁Ambassador	-11.7897
kind	-11.7898
▁Honda	-11.79
call	-11.7901
▁gaps	-11.7902
kg	-11.7903
▁Youth	-11.7903
wn	-11.7904
▁83	-11.7904
ister	-11.7905
▁tan	-11.7907
▁nuts	-11.7908
▁symbolic	-11.791
▁NE	-11.7914
▁Critics	-11.7915
▁Listen	-11.7915
mine	-11.7915
▁wolf	-11.7917
▁geo	-11.7918
uf	-11.7919
▁communist	-11.7919
.“	-11.792
held	-11.7921
▁censorship	-11.7922
▁Portuguese	-11.7923
▁basket	-11.7923
▁Bang	-11.7924
▁stones	-11.7925
▁nod	-11.7925
▁Fran	-11.7926
pen	-11.7927
▁forthcoming	-11.7927
▁130	-11.7928
▁Evil	-11.7928
stock	-11.793
▁scroll	-11.7932
▁React	-11.7934
▁adjacent	-11.7935
▁hometown	-11.7937
▁Virgin	-11.7937
▁Especially	-11.7938
▁Snyder	-11.794
▁Alt	-11.794
▁Hence	-11.7942
▁reproductive	-11.7945
▁Ellis	-11.7951
▁18.	-11.7951
▁toggle	-11.7952
▁ballots	-11.7953
etti	-11.7955
▁CON	-11.7957
▁Stalin	-11.7957
▁imagery	-11.7957
▁shook	-11.7958
▁simpler	-11.7961
▁Earl	-11.7962
▁milestone	-11.7962
▁Wu	-11.7963
▁receivers	-11.7965
▁coupled	-11.7965
▁litigation	-11.7966
▁collision	-11.7966
▁40-	-11.7966
▁dimension	-11.7969
▁sprint	-11.7969
AFP	-11.7972
OM	-11.7972
ics	-11.7974
▁Ac	-11.7979
▁offence	-11.798
▁Dev	-11.798
▁upload	-11.798
▁CH	-11.7981
mmer	-11.7983
▁soup	-11.7984
▁Israelis	-11.7985
▁(9	-11.7985
▁verbal	-11.7986
▁deputies	-11.7987
▁pursued	-11.7989
ement	-11.7989
▁immense	-11.799
▁Boehner	-11.7992
court	-11.7992
▁blogs	-11.7993
SF	-11.7993
▁anytime	-11.7993
gg	-11.7996
▁imported	-11.7997
▁Buck	-11.7997
▁Strange	-11.7997
▁**	-11.8003
▁calculations	-11.8006
▁lacked	-11.8006
▁manufacture	-11.8007
▁sponsors	-11.8007
App	-11.8007
His	-11.8008
▁ES	-11.8009
▁Sweet	-11.8009
dir	-11.801
gin	-11.801
hot	-11.801
▁98	-11.8011
▁tougher	-11.8011
version	-11.8014
▁Minneapolis	-11.8015
gue	-11.8016
▁gentle	-11.8019
▁Sy	-11.802
▁dragon	-11.8021
▁recruited	-11.8025
▁counterpart	-11.8025
▁activation	-11.8026
▁Summit	-11.8026
▁17.	-11.8027
iki	-11.8028
▁SB	-11.8028
▁unemployed	-11.8031
▁Joshua	-11.8031
▁reset	-11.8032
▁scholar	-11.8032
▁Fine	-11.8033
enberg	-11.8034
▁Counter	-11.8035
Americans	-11.8035
▁dissent	-11.8037
▁beam	-11.8038
▁metro	-11.8039
▁Coffee	-11.8039
▁borrow	-11.8044
look	-11.8044
▁tu	-11.8046
mission	-11.8047
▁Shanghai	-11.8048
▁Latino	-11.8049
▁treasure	-11.8049
▁parked	-11.8051
▁hotels	-11.8051
▁archive	-11.8051
▁Walmart	-11.8052
▁delegation	-11.8052
▁lips	-11.8054
▁battling	-11.8057
▁morality	-11.8057
▁pictured	-11.806
▁Redskins	-11.8061
OP	-11.8062
▁surveyed	-11.8064
▁legalization	-11.8065
graph	-11.8066
2.5	-11.8068
ao	-11.8069
▁2006.	-11.8071
▁Marie	-11.8072
▁tha	-11.8073
▁ju	-11.8074
▁Insider	-11.8074
▁Louisville	-11.8075
▁87	-11.8075
▁libertarian	-11.8076
une	-11.8076
▁overwhelmingly	-11.8077
▁disputes	-11.8077
▁physicians	-11.8078
live	-11.8078
▁Ferrari	-11.8081
Brien	-11.8082
▁dam	-11.8082
▁supreme	-11.8083
-21	-11.8084
▁Previous	-11.8084
▁Martinez	-11.8085
Vi	-11.8086
▁LinkedIn	-11.8087
rel	-11.8088
▁emphasized	-11.8088
▁ok	-11.8088
▁interfere	-11.8089
▁$10,000	-11.809
▁scholarship	-11.809
▁studios	-11.8092
▁examining	-11.8092
▁passport	-11.8092
▁fa	-11.8093
▁Nuclear	-11.8096
▁starters	-11.8096
▁Build	-11.81
▁GE	-11.81
▁Norwegian	-11.81
▁mixing	-11.8103
cr	-11.8104
▁Mom	-11.8104
▁Travis	-11.8105
▁comeback	-11.8105
May	-11.8106
▁rooted	-11.8106
▁complement	-11.8109
▁Mun	-11.8109
▁manipulate	-11.8111
▁exclude	-11.8111
.25	-11.8112
▁Delaware	-11.8114
▁Lang	-11.8114
▁Simply	-11.8115
▁characteristic	-11.8117
▁DR	-11.8117
NS	-11.8117
ient	-11.8118
▁lazy	-11.8119
▁Mus	-11.8119
blog	-11.8121
bor	-11.8121
▁Abraham	-11.8122
▁benchmark	-11.8124
▁pulse	-11.8125
coin	-11.8125
▁downward	-11.8126
▁merger	-11.8126
▁rallies	-11.8127
▁uprising	-11.8131
▁threads	-11.8131
▁Kris	-11.8131
rous	-11.8132
▁illusion	-11.8135
▁ordering	-11.8135
▁disposal	-11.8136
▁descent	-11.8136
vers	-11.8136
walk	-11.8136
▁Move	-11.8138
▁Richardson	-11.8138
▁Recent	-11.8138
▁str	-11.8143
▁slated	-11.8144
▁elites	-11.8144
▁prone	-11.8145
final	-11.8149
▁Limited	-11.8151
▁scripts	-11.8154
▁caucus	-11.8155
▁factions	-11.8157
▁sketch	-11.8158
▁Lead	-11.8158
▁drain	-11.8158
▁homosexuality	-11.8158
▁XL	-11.816
▁Score	-11.816
▁transfers	-11.816
▁sheep	-11.8163
pot	-11.8163
▁dawn	-11.8167
isa	-11.817
▁Mediterranean	-11.8171
gel	-11.8174
▁coincidence	-11.8175
▁pole	-11.8176
▁encourages	-11.8176
.[14]	-11.8177
▁Few	-11.8177
▁organs	-11.8178
▁ambulance	-11.818
▁celebrities	-11.818
▁stint	-11.818
▁medieval	-11.8182
▁Chamber	-11.8182
ava	-11.8183
pl	-11.8184
▁proceeds	-11.8185
PD	-11.8186
▁constitute	-11.8186
▁89	-11.8187
=”	-11.8187
Lo	-11.8188
▁07	-11.8191
▁caring	-11.8191
service	-11.8193
▁Enjoy	-11.8193
▁randomly	-11.8193
▁kilometres	-11.8194
▁postseason	-11.8194
▁Count	-11.8194
wal	-11.8198
gn	-11.8198
▁infinite	-11.8201
▁wheat	-11.8202
▁Kor	-11.8202
▁rip	-11.8204
▁UCLA	-11.8205
▁shouted	-11.8205
▁flies	-11.8206
-35	-11.8207
ition	-11.8208
image	-11.821
▁Matthews	-11.8211
eye	-11.8212
▁gotta	-11.8213
DB	-11.8213
▁incomes	-11.8218
ech	-11.8218
▁Zu	-11.8219
▁crackdown	-11.822
Am	-11.8223
El	-11.8224
▁jets	-11.8226
▁conscience	-11.8229
▁Allah	-11.823
▁inclusive	-11.8231
▁crews	-11.8232
DO	-11.8233
▁fixing	-11.8236
trade	-11.8236
▁0.8	-11.8237
▁gasoline	-11.8237
▁Alien	-11.8238
▁catches	-11.8239
▁Sto	-11.8239
▁paintings	-11.8242
Ta	-11.8242
▁inspection	-11.8243
▁dairy	-11.8246
▁assignment	-11.8251
around	-11.8251
▁Clear	-11.8252
▁Kay	-11.8256
▁projections	-11.8257
▁Independence	-11.8257
inter	-11.8258
▁securing	-11.8259
▁insert	-11.826
▁"(	-11.826
▁prisons	-11.8262
▁assessed	-11.8263
▁$100,000	-11.8263
wave	-11.8263
bri	-11.8264
▁nickname	-11.8266
▁pig	-11.8268
▁bounce	-11.8268
▁shouting	-11.8269
▁satisfy	-11.827
▁jersey	-11.827
▁promotional	-11.8272
▁satellites	-11.8272
▁valley	-11.8273
▁50,000	-11.8274
▁mentality	-11.8275
position	-11.8275
▁Gingrich	-11.8277
▁Gaming	-11.8278
▁Ravens	-11.8278
▁notification	-11.8279
▁breathe	-11.828
hole	-11.8281
▁curriculum	-11.8282
▁14-	-11.8285
▁sequences	-11.8286
▁97	-11.8287
▁Kids	-11.8287
▁disputed	-11.8288
50,000	-11.8288
▁assertion	-11.8289
▁Investment	-11.8291
▁favored	-11.8291
▁securities	-11.8295
▁Sara	-11.8295
▁siege	-11.8296
FT	-11.8296
▁voiced	-11.8297
Ne	-11.8298
▁installing	-11.8299
▁Gate	-11.83
OC	-11.8301
▁optimal	-11.8301
horn	-11.8302
▁campaigning	-11.8302
UR	-11.8302
▁imminent	-11.8303
▁Dear	-11.8304
▁liberties	-11.8304
▁Gri	-11.8305
pay	-11.8307
▁census	-11.8308
▁sentencing	-11.8308
▁lightning	-11.8309
itis	-11.8311
vie	-11.8316
▁classification	-11.8316
▁wipe	-11.8318
TOR	-11.8319
▁Coming	-11.8321
▁easiest	-11.8322
▁honey	-11.8323
▁advisers	-11.8325
▁vaccines	-11.8326
▁Racing	-11.8327
▁Sudan	-11.8329
ancy	-11.833
▁expedition	-11.8331
▁norms	-11.8331
▁weaker	-11.8331
▁predictable	-11.8334
▁Adventure	-11.8335
▁Form	-11.8338
running	-11.8339
▁Damascus	-11.834
▁gambling	-11.834
▁potent	-11.8341
▁Majority	-11.8343
▁indicator	-11.8343
▁Probably	-11.8343
▁staffers	-11.8343
▁Tumblr	-11.8344
▁IQ	-11.8345
gon	-11.8346
▁pairs	-11.8347
▁1.4	-11.8348
▁juvenile	-11.8349
breaking	-11.8353
▁paragraph	-11.8354
ison	-11.8356
▁Vote	-11.8356
▁Surface	-11.8357
▁digging	-11.8358
▁AMY	-11.8358
▁Banks	-11.8359
shire	-11.836
▁Mumbai	-11.8361
▁Curry	-11.8363
▁Dylan	-11.8363
▁Dam	-11.8365
▁anthem	-11.8367
▁Operations	-11.8367
▁elephant	-11.8369
▁Object	-11.8369
each	-11.837
▁nationalism	-11.8375
▁Perl	-11.8375
▁Lakers	-11.8381
bl	-11.8381
▁Stuart	-11.8385
▁exam	-11.8386
hn	-11.8387
▁synthetic	-11.8387
▁admire	-11.8388
CL	-11.8388
▁fifty	-11.8394
▁prompting	-11.8394
▁hammer	-11.8394
▁knees	-11.8395
SO	-11.8395
▁Huffington	-11.8398
beat	-11.8398
▁poison	-11.8399
▁compile	-11.84
▁Walt	-11.8403
▁intensive	-11.8403
▁Paper	-11.8405
aver	-11.8406
▁nutrition	-11.8406
Since	-11.8407
▁Whit	-11.8408
▁activated	-11.8408
▁dining	-11.8409
▁heal	-11.841
▁atmospheric	-11.8412
▁cliff	-11.8413
▁raids	-11.8414
▁Crew	-11.8415
▁RELATED	-11.8416
▁Sanchez	-11.8416
▁cups	-11.8418
ically	-11.8418
▁reactor	-11.8421
▁Evan	-11.8422
miss	-11.8422
▁Woods	-11.8422
mun	-11.8423
▁8-	-11.8423
▁94	-11.8424
▁militia	-11.8425
▁scattered	-11.8432
hor	-11.8435
▁surplus	-11.8436
▁cooler	-11.8437
▁Engine	-11.8441
▁Version	-11.8443
click	-11.8444
▁Production	-11.8445
▁smallest	-11.8446
▁Peterson	-11.8446
▁Ag	-11.8448
▁Audio	-11.8448
▁influences	-11.8449
▁genome	-11.8449
ili	-11.8449
Pi	-11.845
▁delegate	-11.8451
▁Soul	-11.8451
OD	-11.8451
▁Laboratory	-11.8453
▁remotely	-11.8453
▁threatens	-11.8454
hall	-11.8454
▁dishes	-11.8457
▁Winnipeg	-11.8457
▁smiling	-11.8457
▁unconscious	-11.8457
1.0	-11.8457
▁UP	-11.8457
▁accordance	-11.8457
▁dash	-11.8458
▁inspiring	-11.8458
▁weighed	-11.8459
ct	-11.8463
writer	-11.8463
▁pill	-11.8464
▁proteins	-11.8465
ude	-11.8465
▁Initiative	-11.8466
▁Vietnamese	-11.8466
▁abuses	-11.8467
▁Gre	-11.8467
bre	-11.8468
▁hashtag	-11.8468
▁Seth	-11.8469
▁canceled	-11.8469
▁nest	-11.8469
COM	-11.8469
▁depicted	-11.8471
aga	-11.8471
▁competitor	-11.8471
▁Officers	-11.8471
▁tar	-11.8474
▁heels	-11.8475
▁dressing	-11.8475
▁Interview	-11.8476
▁diameter	-11.848
▁Sche	-11.848
▁spec	-11.848
▁pitched	-11.8481
▁educate	-11.8483
▁4,000	-11.8483
,000,000	-11.8484
FI	-11.8485
depth	-11.8485
▁Mosul	-11.8485
rey	-11.8485
▁Emergency	-11.8488
▁faction	-11.8488
▁Adrian	-11.8489
▁posters	-11.8489
▁bargain	-11.8491
ality	-11.8491
▁populist	-11.8491
▁Effect	-11.8493
▁Prophet	-11.8493
▁Tab	-11.8494
9,000	-11.8495
▁Interestingly	-11.8495
▁1.1	-11.8495
▁kiss	-11.8497
Once	-11.8498
▁accounted	-11.8498
▁ambition	-11.8499
▁intervene	-11.8501
▁shark	-11.8501
▁Chile	-11.8502
▁Reporter	-11.8504
num	-11.8506
▁Usually	-11.8508
▁Job	-11.8509
Good	-11.8509
▁opener	-11.851
▁grassroots	-11.8512
▁attendees	-11.8513
zan	-11.8513
▁disadvantage	-11.8514
▁literal	-11.8515
▁Lloyd	-11.8516
▁chasing	-11.8516
▁patents	-11.8516
▁incorporate	-11.852
▁adverse	-11.8521
▁marginal	-11.8522
▁containers	-11.8524
▁rapper	-11.8524
▁dictator	-11.8525
▁rivers	-11.8526
▁ladies	-11.8526
▁Finn	-11.8527
▁adventures	-11.8529
▁bo	-11.853
dle	-11.8532
▁pistol	-11.8532
▁cooperate	-11.8533
▁Titan	-11.8534
wed	-11.8534
▁Ky	-11.8534
▁encounters	-11.8535
▁crypto	-11.8536
tail	-11.8536
▁instructed	-11.8538
▁Scholar	-11.8539
▁appreciation	-11.8539
▁Pew	-11.8539
▁Carroll	-11.854
▁unhappy	-11.854
mos	-11.8541
pr	-11.8541
▁spike	-11.8544
atory	-11.8545
▁impacted	-11.8546
▁locate	-11.8548
▁chi	-11.855
▁queen	-11.855
▁bonuses	-11.8551
▁Cyber	-11.8552
▁shine	-11.8552
▁Hezbollah	-11.8553
▁shaking	-11.8553
▁CE	-11.8554
DF	-11.8555
▁Abe	-11.8557
▁fortunate	-11.8558
kov	-11.8561
.[15]	-11.8565
▁cellphone	-11.8567
▁pal	-11.8568
▁manually	-11.8568
Hi	-11.8569
▁systematic	-11.857
Like	-11.8571
▁repository	-11.8571
Day	-11.8572
▁Leonard	-11.8576
▁convictions	-11.8577
▁gaze	-11.858
▁undocumented	-11.8581
clock	-11.8587
▁chairs	-11.8588
▁sphere	-11.8589
▁Spa	-11.859
▁affiliated	-11.859
▁feminism	-11.8593
▁Past	-11.8595
▁Transit	-11.8597
▁mar	-11.8597
▁Pla	-11.8602
▁investigator	-11.8603
▁Row	-11.861
▁integral	-11.8611
▁Representative	-11.8611
▁Zoo	-11.8612
▁bloc	-11.8613
▁Chair	-11.8613
▁fines	-11.8613
▁cigarette	-11.8614
language	-11.8615
▁HERE	-11.8616
▁forensic	-11.8618
▁dem	-11.8618
▁clue	-11.8619
EU	-11.8619
▁surrender	-11.8619
▁pitches	-11.862
normal	-11.862
▁GOODMAN	-11.8622
fair	-11.8622
▁towers	-11.8622
▁Wildlife	-11.8622
ET	-11.8623
▁Barnes	-11.8624
▁Experience	-11.8625
▁Poll	-11.8626
▁Shot	-11.8626
▁Kasich	-11.8627
▁recovering	-11.8627
▁Ob	-11.8627
ill	-11.8627
▁Bee	-11.8628
▁Zach	-11.8628
–19	-11.863
▁remembers	-11.8631
▁tick	-11.8636
▁Westminster	-11.8636
▁anxious	-11.8639
▁jack	-11.864
▁detective	-11.8641
▁pat	-11.8641
▁va	-11.8641
▁Behind	-11.8642
▁Heroes	-11.8644
▁compassion	-11.8645
rod	-11.8645
▁Omar	-11.8645
▁Kenny	-11.8646
▁Randy	-11.865
▁Cairo	-11.865
▁ob	-11.865
▁Sgt	-11.8651
hem	-11.8651
▁clan	-11.8652
▁centres	-11.8652
▁continuously	-11.8653
▁cur	-11.8653
▁elementary	-11.8656
HD	-11.8658
▁regain	-11.866
▁Arnold	-11.866
six	-11.8661
▁positioned	-11.8662
ates	-11.8665
▁utilities	-11.8668
▁Ant	-11.8669
Dis	-11.867
▁breeding	-11.8674
▁Simple	-11.8675
▁Springs	-11.8675
▁wildly	-11.8676
def	-11.8676
▁humble	-11.8676
▁institute	-11.8676
▁Triple	-11.8677
▁Stories	-11.8678
mates	-11.8679
▁Lock	-11.868
▁Fans	-11.868
▁cookies	-11.8681
Then	-11.8682
"":""	-11.8682
▁Walk	-11.8685
driving	-11.8685
▁loads	-11.8686
HR	-11.8686
paid	-11.8687
▁Kenya	-11.8688
▁dealers	-11.8688
▁Pride	-11.8689
ibility	-11.8689
▁Erik	-11.8689
▁Virtual	-11.869
▁Wave	-11.8691
▁Except	-11.8692
tom	-11.8692
▁measurement	-11.8692
▁shallow	-11.8692
▁candy	-11.8693
▁remainder	-11.8695
▁Coin	-11.8695
bee	-11.8695
▁Tournament	-11.8696
▁shelves	-11.8696
▁activism	-11.8696
ense	-11.8698
▁Send	-11.8699
els	-11.8699
▁Reason	-11.87
▁undergo	-11.8701
▁catastrophic	-11.8702
▁160	-11.8702
▁Tap	-11.8703
▁$40	-11.8707
ifying	-11.8709
▁transported	-11.871
▁tropical	-11.8711
SU	-11.8712
▁criticize	-11.8714
▁obsession	-11.8715
▁deserved	-11.8715
hai	-11.8716
lessness	-11.8717
▁faithful	-11.8717
▁icons	-11.8717
▁cloth	-11.8718
▁dense	-11.8718
Israel	-11.8719
▁mana	-11.872
ees	-11.8722
▁Reports	-11.8723
▁Reynolds	-11.8724
▁fundraiser	-11.8724
▁30,000	-11.8724
▁pickup	-11.8724
erson	-11.8724
itt	-11.8725
▁cooked	-11.8726
▁blogger	-11.8727
web	-11.8728
▁inhabitants	-11.8729
▁simulation	-11.873
/4	-11.873
▁hydro	-11.8732
?!	-11.8735
▁delivers	-11.8735
▁CDC	-11.8736
▁Broad	-11.8737
▁Chen	-11.8737
▁ba	-11.8738
▁sandwich	-11.874
▁forgot	-11.8741
erman	-11.8741
▁wasted	-11.8742
▁paradigm	-11.8742
▁automation	-11.8743
▁ripped	-11.8743
▁suppress	-11.8743
▁sufficiently	-11.8748
▁certainty	-11.8749
▁outrageous	-11.8749
▁£3	-11.8751
▁Courtesy	-11.8751
▁maximize	-11.8752
▁extinction	-11.8753
▁SI	-11.8753
▁beard	-11.8753
▁charm	-11.8753
▁invention	-11.8754
▁09	-11.8755
▁blacks	-11.8755
▁Theory	-11.8755
mas	-11.8756
▁Pierre	-11.8757
-22	-11.8758
ered	-11.8759
cl	-11.8759
▁concentrate	-11.8759
▁0.4	-11.8759
▁Memphis	-11.8761
▁Pot	-11.8762
▁staring	-11.8763
▁arch	-11.8765
▁touches	-11.8766
▁Kurds	-11.8766
▁Ultimate	-11.8769
▁Libyan	-11.877
▁religions	-11.877
▁Geo	-11.877
▁guarantees	-11.877
▁Flint	-11.8771
▁pork	-11.8773
sti	-11.8774
▁Node	-11.8774
think	-11.878
▁Rules	-11.878
uni	-11.8783
▁liquor	-11.8785
▁dude	-11.8788
▁Account	-11.8788
▁Northwest	-11.8791
▁Companies	-11.8792
▁perceive	-11.8792
▁Boys	-11.8792
local	-11.8794
headed	-11.8794
▁Agent	-11.8794
▁ja	-11.8796
▁seize	-11.8796
▁Pearl	-11.8796
▁spam	-11.8799
iti	-11.8799
your	-11.88
▁rebounds	-11.8803
▁NEW	-11.8804
▁freak	-11.8806
pper	-11.8808
▁saves	-11.8809
▁enthusiastic	-11.8809
zel	-11.8809
▁Citizens	-11.881
▁zoo	-11.8811
▁lowered	-11.8814
▁Brett	-11.8815
ML	-11.8817
chy	-11.8817
▁abusive	-11.8817
▁EV	-11.8818
▁Montgomery	-11.8819
▁Running	-11.8819
▁persuade	-11.882
▁contender	-11.8822
▁Beta	-11.8823
▁riots	-11.8826
▁topped	-11.8827
CT	-11.8828
hold	-11.8829
▁shelf	-11.883
▁devil	-11.8832
▁flavors	-11.8833
0.1	-11.8834
▁portable	-11.8834
▁Luther	-11.8834
▁GO	-11.8835
▁Progress	-11.8836
▁Progressive	-11.8837
Set	-11.8838
▁lip	-11.8838
▁Forbes	-11.8842
▁eaten	-11.8843
area	-11.8845
▁blanket	-11.8845
▁Metropolitan	-11.8846
▁strangers	-11.8847
rest	-11.8849
▁Bug	-11.885
▁Scientology	-11.885
/8	-11.8852
▁inadequate	-11.8852
▁displaced	-11.8853
▁republic	-11.8854
▁offline	-11.8855
▁fifteen	-11.8855
▁bolster	-11.8855
General	-11.8857
hin	-11.8858
▁accelerate	-11.8858
▁Colombia	-11.8864
▁baseline	-11.8865
▁Derek	-11.8865
▁gates	-11.8866
NF	-11.8867
▁altitude	-11.8867
▁patches	-11.8867
/9	-11.8867
▁Ralph	-11.8869
ath	-11.8871
▁Legend	-11.8874
▁Wizards	-11.8875
▁Sorry	-11.8878
▁advisor	-11.8882
FF	-11.8882
▁invalid	-11.8882
▁restoration	-11.8884
▁chef	-11.8884
38	-11.8885
▁Rare	-11.8889
aci	-11.8889
Source	-11.889
▁Always	-11.8892
▁travelled	-11.8893
▁interrogation	-11.8893
▁lied	-11.8894
▁offerings	-11.8895
▁LE	-11.8895
▁Transport	-11.8898
.[16]	-11.8898
▁halfway	-11.8899
Di	-11.89
▁Shield	-11.8902
woman	-11.8904
economic	-11.8909
▁prevents	-11.891
▁reckless	-11.8912
▁climbed	-11.8912
▁gauge	-11.8912
▁Faith	-11.8913
▁boundary	-11.8913
Ad	-11.8913
▁4)	-11.8913
▁1963	-11.8914
▁Direct	-11.8914
▁profiles	-11.8915
▁06	-11.8917
▁talents	-11.8917
▁marking	-11.8917
▁staple	-11.8917
▁irony	-11.8917
▁microphone	-11.8917
▁Depression	-11.8917
▁aerial	-11.8917
sexual	-11.8919
▁Tiger	-11.892
▁ambitions	-11.892
▁needing	-11.8921
▁appetite	-11.8922
▁imprisonment	-11.8922
▁Cur	-11.8923
▁venues	-11.8924
sur	-11.8924
▁jailed	-11.8925
los	-11.8926
Life	-11.8926
▁statute	-11.8927
▁stir	-11.8928
defense	-11.8928
sia	-11.893
▁aluminum	-11.8931
▁recipient	-11.8931
west	-11.8933
▁manga	-11.8933
lt	-11.8935
▁Aside	-11.8937
anda	-11.8939
▁lacks	-11.8939
iel	-11.8941
▁foremost	-11.8945
▁connectivity	-11.8946
billion	-11.8946
▁adjustments	-11.8946
▁bullying	-11.8947
▁Anonymous	-11.8948
▁Tam	-11.8949
rim	-11.8949
▁delighted	-11.8949
nch	-11.8952
▁15%	-11.8952
▁Mai	-11.8953
▁Hol	-11.8955
▁centered	-11.8958
wire	-11.896
▁imposing	-11.896
▁deter	-11.8961
▁Harbor	-11.8962
▁lightly	-11.8963
selling	-11.8965
▁THIS	-11.8965
▁Wings	-11.8966
gam	-11.8969
▁committees	-11.8971
CD	-11.8972
trans	-11.8972
sley	-11.8972
▁Lou	-11.8974
1.1	-11.8975
▁spiral	-11.8977
atic	-11.8977
▁Ur	-11.8978
▁rockets	-11.8979
▁Kat	-11.898
▁Industrial	-11.8982
▁Perez	-11.8985
▁demonstrators	-11.8988
▁mold	-11.8989
▁reboot	-11.899
▁Bou	-11.8991
proof	-11.8992
▁illustrate	-11.8993
▁consisting	-11.8994
▁McC	-11.8994
▁clearing	-11.8994
▁Ruth	-11.8994
super	-11.8995
▁asleep	-11.8995
án	-11.8995
▁Tal	-11.8999
▁owe	-11.8999
▁decisive	-11.9002
▁91	-11.9003
▁Falls	-11.9003
▁Welcome	-11.9004
▁inherently	-11.9005
▁whistle	-11.9005
▁biased	-11.9007
▁BR	-11.9007
abi	-11.9008
▁darker	-11.9009
▁Darwin	-11.9012
▁Agriculture	-11.9012
▁legitimacy	-11.9012
▁Confederate	-11.9014
dell	-11.9014
▁encrypted	-11.9014
▁coding	-11.9016
▁Alternative	-11.9016
▁Gr	-11.902
▁attachment	-11.9021
▁NSW	-11.9021
▁Prevention	-11.9022
HL	-11.9023
▁accordingly	-11.9024
illo	-11.9024
▁slammed	-11.9027
▁fusion	-11.9028
▁rises	-11.9029
▁extensively	-11.903
▁inconsistent	-11.903
▁BO	-11.903
▁elegant	-11.9031
▁Bart	-11.9034
▁Easy	-11.9034
▁Luckily	-11.9034
▁alarming	-11.9035
esque	-11.9036
▁rhythm	-11.9037
▁Style	-11.9038
▁depressed	-11.9039
▁rifles	-11.9042
▁wished	-11.9043
▁protagonist	-11.9044
imp	-11.9045
liter	-11.9046
▁penis	-11.9046
▁cafe	-11.9047
zing	-11.9048
▁cables	-11.9048
▁rep	-11.9053
▁Dolphins	-11.9056
▁BMW	-11.9057
▁payroll	-11.9058
▁finances	-11.9059
▁recognised	-11.9059
▁Gang	-11.906
▁Electronic	-11.9062
▁aligned	-11.9062
change	-11.9062
▁directing	-11.9065
▁Leafs	-11.9066
▁contributors	-11.9066
▁Lib	-11.9066
child	-11.9067
▁Ol	-11.9069
[...]
